<pad>	0
<unk>	0
<s>	0
</s>	0
<ans>	0
</ans>	0
▁	-2.33082
▁کے	-3.30204
▁میں	-3.62365
▁کی	-3.65312
▁،	-3.71417
؟	-4.04787
▁اور	-4.20086
▁سے	-4.26916
ے	-4.33464
▁ہے	-4.37005
▁کو	-4.3729
▁کیا	-4.44252
▁کا	-4.44442
▁پر	-4.48734
▁نے	-4.49166
وں	-4.57124
ی	-4.64603
▁ایک	-4.86834
▁اس	-5.06145
▁کس	-5.21145
▁تھا	-5.23219
▁لئے	-5.29476
▁ہے۔	-5.30151
ہ	-5.34415
طور	-5.36059
▁ہیں	-5.47846
▁گیا	-5.50867
ا	-5.51318
)	-5.55035
▁جو	-5.63879
▁(	-5.66401
▁ساتھ	-5.71204
▁کرنے	-5.71516
▁جس	-5.72529
▁کون	-5.78776
▁کہ	-5.82348
▁جاتا	-5.89914
ز	-5.91022
▁زیادہ	-5.91936
س	-6.00976
▁سی	-6.11386
▁ہیں۔	-6.13819
▁سب	-6.14191
▁یہ	-6.15138
▁تک	-6.18971
▁ان	-6.18978
▁تھا۔	-6.21411
▁بعد	-6.21813
▁استعمال	-6.23597
▁تھی	-6.27475
▁سال	-6.27988
ل	-6.3346
▁بھی	-6.37886
م	-6.38001
▁یا	-6.38569
▁نام	-6.39445
۔	-6.39574
یں	-6.4118
▁سا	-6.44136
▁کتن	-6.5097
ن	-6.52957
▁دیا	-6.53971
▁نہیں	-6.57166
▁تھے	-6.57339
ک	-6.58867
،	-6.5948
نگ	-6.59591
ر	-6.59782
▁کر	-6.61412
▁والے	-6.61838
▁کرتا	-6.65261
▁کرتے	-6.65583
▁شامل	-6.6609
▁پہلے	-6.66644
ات	-6.68947
▁وہ	-6.69127
اپنے	-6.69165
▁بار	-6.69474
▁کم	-6.70318
▁ڈی	-6.71771
▁شہر	-6.74075
▁ہوا	-6.76203
▁ذریعہ	-6.76794
▁گئی	-6.80976
ت	-6.81661
▁دی	-6.83406
نے	-6.83799
▁عام	-6.84026
▁بہت	-6.84608
▁آف	-6.85946
▁کب	-6.86278
▁دوران	-6.87901
▁کیا۔	-6.89128
▁ہون	-6.8979
▁م	-6.91623
▁ایس	-6.91989
▁جب	-6.92048
▁کہا	-6.9326
و	-6.9618
▁بی	-6.96594
▁طرح	-6.98062
▁غیر	-6.99619
▁صدی	-6.99999
▁کام	-7.00145
▁ریاست	-7.00149
▁کچھ	-7.01494
▁شروع	-7.0162
▁دو	-7.02049
▁حاصل	-7.02825
▁اے	-7.03594
▁جنگ	-7.03792
▁و	-7.03814
▁ہوئے	-7.06614
ڈ	-7.07374
▁ہی	-7.08372
لیکن	-7.08854
ین	-7.09855
▁قسم	-7.11324
▁بن	-7.12555
▁اپنی	-7.12572
▁وقت	-7.14444
ٹ	-7.1496
▁جیسے	-7.15758
▁طرف	-7.15888
▁ہوتا	-7.16742
▁امریکی	-7.16895
▁پی	-7.16899
▁اہم	-7.17134
▁جان	-7.18204
▁دور	-7.1827
▁کہاں	-7.20883
▁وجہ	-7.2271
٪	-7.24303
▁تیار	-7.24824
▁آئی	-7.24926
▁والی	-7.2573
▁نیو	-7.26866
-	-7.26989
▁تھی۔	-7.28999
:	-7.29199
▁ویں	-7.31776
▁تر	-7.32415
▁تھے۔	-7.32718
▁حکومت	-7.3339
▁تقریبا	-7.33848
▁آبادی	-7.34823
▁ہوئی	-7.35348
▁حصہ	-7.38594
▁ای	-7.38696
▁پیش	-7.39082
▁کرنا	-7.3961
▁پہلی	-7.41042
▁بڑے	-7.41489
▁متحدہ	-7.42618
▁گئے	-7.43675
ون	-7.43954
▁ایم	-7.45914
▁تو	-7.46104
▁گروپ	-7.46666
▁کرتی	-7.46829
▁تعمیر	-7.47264
صرف	-7.47606
▁جانا	-7.47722
▁واقع	-7.47915
▁زبان	-7.48066
▁جاتی	-7.48473
یا	-7.48838
▁انہ	-7.49172
▁ٹی	-7.49699
▁دہائی	-7.49713
▁جن	-7.49768
▁مختلف	-7.49776
▁جاری	-7.50479
▁بنیادی	-7.50839
▁ملک	-7.50901
▁امریکہ	-7.50905
▁ہوتی	-7.51967
▁دنیا	-7.51988
▁ہر	-7.52166
▁کی۔	-7.52587
▁-	-7.52855
▁دیگر	-7.56109
▁دوسرے	-7.56512
▁درج	-7.57163
تمام	-7.57627
▁این	-7.57781
▁قائم	-7.58502
▁پیدا	-7.58513
▁آر	-7.59748
ری	-7.59844
s	-7.60009
▁ہو	-7.60226
انہ	-7.61216
▁بڑی	-7.6177
▁پہلا	-7.61965
اں	-7.62637
▁خلاف	-7.62971
▁درمیان	-7.64386
▁گھر	-7.6585
ہائ	-7.65923
▁ایل	-7.66123
▁اسکول	-7.66434
▁یونیورسٹی	-7.66601
▁شمالی	-7.67037
▁ملین	-7.67212
▁لوگوں	-7.67691
▁مطابق	-7.67886
▁اب	-7.67915
ف	-7.67919
▁ابتدائی	-7.67971
▁جبکہ	-7.68098
▁کسی	-7.68148
▁کردیا	-7.69881
▁قانون	-7.70013
▁سلطنت	-7.7004
▁او	-7.7017
▁ہوتے	-7.70518
▁ایف	-7.70982
▁تشکیل	-7.71287
▁نظام	-7.73347
▁بال	-7.73853
▁ترقی	-7.75419
▁تین	-7.76529
▁شدہ	-7.76807
▁عمل	-7.77598
▁بچ	-7.7815
▁خاص	-7.78329
▁برطانیہ	-7.79002
ش	-7.79377
د	-7.79525
▁یو	-7.79881
▁علاقے	-7.80883
▁بنیاد	-7.81263
▁بڑا	-7.81578
▁کار	-7.81808
▁وی	-7.8253
▁پیمان	-7.82642
▁تاریخ	-7.82739
ان	-7.82771
▁مابین	-7.83036
▁فیصد	-7.831
▁تعلیم	-7.83382
▁مقامی	-7.83526
▁والا	-7.84369
ب	-7.84611
▁مغربی	-7.84737
▁لی	-7.84898
▁فرانسیسی	-7.84933
▁دوسری	-7.85322
▁دینے	-7.8542
▁کوشش	-7.85718
نا	-7.85816
▁فراہم	-7.86276
▁جرمن	-7.86276
▁ختم	-7.86384
▁دونوں	-7.86449
▁تبدیل	-7.87076
▁برطانوی	-7.87107
▁کتنا	-7.87236
▁کمپنی	-7.87457
▁مکمل	-7.87485
▁پاس	-7.87544
▁اصل	-7.87692
▁جی	-7.87844
▁اکثر	-7.88371
▁خاندان	-7.89034
▁جنوبی	-7.89217
▁ذریعے	-7.89221
لی	-7.89277
▁سرکاری	-7.89348
▁رہا	-7.89475
▁چیز	-7.89663
▁علاقوں	-7.89786
دوبارہ	-7.91052
▁17	-7.91632
▁علاوہ	-7.9227
▁قابل	-7.92286
▁مشرقی	-7.92542
▁۔	-7.92603
▁کیونکہ	-7.9266
▁سمجھا	-7.93549
▁چرچ	-7.937
▁صدر	-7.93702
ج	-7.94313
▁زمین	-7.94496
▁موسم	-7.95235
▁دن	-7.95878
▁ب	-7.95976
▁نئے	-7.96352
▁جگہ	-7.96864
▁بندی	-7.96993
▁گیا۔	-7.97145
▁تحت	-7.97228
▁سکتا	-7.97302
▁اجازت	-7.97432
▁حصے	-7.97852
▁بین	-7.97982
▁3	-7.98069
سٹ	-7.98298
▁جدید	-7.98348
▁فوج	-7.98457
▁مشہور	-7.98524
▁یورپی	-7.98577
▁اعلی	-7.98639
▁مل	-7.98797
▁مثال	-7.99576
▁یونانی	-7.99665
▁لے	-7.99745
▁شکل	-7.99968
▁جہاں	-7.99998
▁انتخاب	-8.00116
▁2	-8.00457
▁کردہ	-8.00497
ئی	-8.00664
▁فٹ	-8.00853
▁آخر	-8.00909
▁سطح	-8.0145
پ	-8.0149
تا	-8.015
▁ہم	-8.02144
▁کنٹرول	-8.02486
▁بنایا	-8.02546
▁مدد	-8.03018
سی	-8.03026
▁ریکارڈ	-8.03765
▁ممالک	-8.04028
▁چین	-8.04279
▁ت	-8.04391
▁آغاز	-8.04903
▁سسٹم	-8.05049
▁کوئی	-8.05205
وس	-8.05315
▁خیال	-8.05659
▁مین	-8.05768
▁خود	-8.05774
"	-8.06484
▁فلم	-8.06576
▁نتیج	-8.07019
▁سٹی	-8.07101
▁رنگ	-8.07551
▁لیگ	-8.07609
▁تقسیم	-8.08402
ائی	-8.08897
ور	-8.09069
▁اعلان	-8.0924
▁طاقت	-8.09736
▁کردار	-8.10117
تھ	-8.1017
▁معیار	-8.1019
▁16	-8.1039
▁کن	-8.10694
▁مقابل	-8.10694
▁حمل	-8.10925
▁قدیم	-8.1108
▁اصطلاح	-8.11196
▁ڈالر	-8.112
چ	-8.11336
▁ضرورت	-8.11481
▁میل	-8.11715
▁فی	-8.11883
▁یونین	-8.11956
▁نظر	-8.12511
▁15	-8.12671
▁تجارت	-8.13056
▁1	-8.13132
▁عظیم	-8.13149
▁کبھی	-8.13167
▁کھیل	-8.13209
▁سیاسی	-8.13218
▁یارک	-8.13352
نی	-8.13674
اس	-8.13743
▁لوگ	-8.13824
▁انگریزی	-8.13959
▁فوجی	-8.14427
▁حمایت	-8.14576
ار	-8.14648
را	-8.15118
▁10	-8.15397
▁موسیقی	-8.15431
▁مسیح	-8.15569
▁منتقل	-8.15731
▁سینٹ	-8.15836
▁قریب	-8.16032
▁فرانس	-8.1604
▁تاہم	-8.16202
▁سیزن	-8.16316
▁اندر	-8.16715
▁بیان	-8.1672
▁اینڈ	-8.1691
▁18	-8.1698
▁لیا	-8.17205
e	-8.17215
▁متاثر	-8.17356
▁بنانے	-8.17395
کئی	-8.17423
▁تعداد	-8.17438
وسیع	-8.17728
ذ	-8.17783
▁لندن	-8.18188
▁"	-8.18234
▁اثر	-8.18378
▁جا	-8.18488
▁دیا۔	-8.18547
▁حیثیت	-8.19196
نئی	-8.19263
سن	-8.19455
▁20	-8.19506
گ	-8.19899
▁افراد	-8.20477
▁معاہدے	-8.20556
▁جاسکتا	-8.20668
▁موجود	-8.20831
▁وسطی	-8.21018
▁زندگی	-8.21243
▁فروخت	-8.21329
▁جزیر	-8.21457
▁گا	-8.21557
▁جنوب	-8.22386
▁چار	-8.22582
▁رکھا	-8.23044
▁مبنی	-8.24661
ٹی	-8.2472
▁مر	-8.24996
▁ویسٹ	-8.25031
▁نسل	-8.25316
▁ال	-8.25618
▁موت	-8.25676
▁قومی	-8.25827
وامی	-8.25832
؛	-8.25917
▁ڈیزائن	-8.26083
▁الاق	-8.26139
'	-8.26468
▁ظاہر	-8.26542
▁یورپ	-8.26617
▁ہوائی	-8.26908
▁ش	-8.28356
▁اسٹیشن	-8.28415
▁بھر	-8.28471
▁جاتے	-8.29319
▁چینی	-8.2935
▁کمی	-8.29649
▁پروگرام	-8.2969
▁مرکز	-8.29983
i	-8.30165
▁لائن	-8.30304
▁ٹیم	-8.30327
دار	-8.30379
▁رہے	-8.30401
▁الگ	-8.30761
▁کل	-8.31626
▁بادشاہ	-8.31638
▁رومن	-8.31643
▁/	-8.31666
▁میٹر	-8.3177
▁لیے	-8.32048
ٹو	-8.32303
▁جہاز	-8.32639
▁سر	-8.32884
▁بات	-8.32923
▁ٹیلی	-8.33051
بی	-8.33121
▁عوامی	-8.33202
▁نشان	-8.33219
▁لینڈ	-8.33412
▁آخری	-8.33582
▁آزاد	-8.34018
▁پانی	-8.34205
▁ہاؤس	-8.34514
▁5	-8.34776
▁پارٹی	-8.34777
▁کتاب	-8.3486
▁پارک	-8.3495
نٹ	-8.35221
▁قب	-8.35237
o	-8.35302
▁ہوا۔	-8.35304
▁توانائی	-8.35579
▁انداز	-8.35617
▁12	-8.35788
▁فن	-8.35874
▁مشتمل	-8.35878
شائع	-8.36214
تعدد	-8.37573
▁شمال	-8.37645
▁ایچ	-8.3779
▁حملہ	-8.38008
▁سوویت	-8.38608
▁تھیں	-8.38853
▁انسانی	-8.39036
▁شو	-8.3911
▁اپنا	-8.39146
▁وضاحت	-8.39328
▁جائے	-8.39374
▁نیشنل	-8.39449
▁مطلب	-8.39535
▁بولی	-8.39941
▁عمارت	-8.3995
یو	-8.40318
.	-8.4036
▁جنرل	-8.40367
▁مشرق	-8.40426
▁اضافہ	-8.40499
▁وال	-8.40631
▁نو	-8.40639
نکہ	-8.40701
y	-8.40854
▁پرجاتیوں	-8.40932
▁عمر	-8.41195
a	-8.4129
▁2010	-8.41845
▁پانچ	-8.42138
▁مقصد	-8.42582
▁کالج	-8.4272
▁حالا	-8.43016
▁جمہوریہ	-8.43394
2	-8.4346
▁برقرار	-8.43546
▁ف	-8.43697
وا	-8.43883
▁موجودہ	-8.44049
▁آئین	-8.44135
▁کلومیٹر	-8.44414
▁مرکزی	-8.44615
▁ثقافت	-8.447
تعارف	-8.44738
ول	-8.44761
مہ	-8.44926
▁چھوڑ	-8.44957
▁حوالہ	-8.45049
▁قبضہ	-8.45054
▁حکمرانی	-8.45076
▁مذہبی	-8.45395
▁14	-8.45593
▁8	-8.45665
▁لا	-8.45904
▁انگلینڈ	-8.45945
▁تنظیم	-8.45999
▁روم	-8.46023
0	-8.46542
بل	-8.4656
▁واحد	-8.46831
رز	-8.47221
کس	-8.47715
▁قیادت	-8.4795
?	-8.48062
ٹن	-8.48125
▁اگر	-8.48214
یت	-8.4832
روایتی	-8.48458
▁بجائے	-8.49197
▁لفظ	-8.49459
وجہ	-8.4958
▁دیتا	-8.496
انے	-8.4989
▁کونسل	-8.50167
ٹر	-8.50246
▁واپس	-8.50537
▁باہر	-8.50689
▁بے	-8.5071
▁4	-8.50747
▁رہت	-8.50845
▁پھر	-8.5092
▁مئی	-8.51113
▁شکار	-8.51246
▁دار	-8.51261
▁طلباء	-8.51386
▁تبدیلی	-8.51412
▁پیرس	-8.51524
▁مارچ	-8.51653
▁آزادی	-8.51713
▁ادا	-8.51736
▁رکھن	-8.52057
گی	-8.52306
▁ق	-8.52318
▁خدمات	-8.52556
▁ہائی	-8.52656
▁مطالعہ	-8.52678
▁19	-8.52834
ح	-8.52954
n	-8.53246
وی	-8.53275
▁13	-8.53611
▁ستمبر	-8.53624
▁سکتے	-8.53755
▁وکٹوریہ	-8.53779
▁خواتین	-8.53981
▁منتخب	-8.5446
▁رکھی	-8.5458
شن	-8.55134
▁ہسپانوی	-8.55165
▁11	-8.55218
▁ایئر	-8.55702
▁علم	-8.55907
▁2011	-8.55917
▁سینٹر	-8.55975
▁2008	-8.5628
▁روسی	-8.56294
▁جین	-8.56596
▁6	-8.56626
▁معاشی	-8.56769
▁بیل	-8.57207
▁شہنشاہ	-8.57262
▁جمع	-8.57264
▁کیسے	-8.57335
▁مرد	-8.57482
▁اگرچہ	-8.57522
▁جیت	-8.57538
▁تاریخی	-8.57584
▁ممبر	-8.57594
▁بدھ	-8.57642
▁اوائل	-8.57645
کل	-8.57747
▁جون	-8.57755
▁ہندوستان	-8.57792
کو	-8.58
▁میوزک	-8.5813
▁مغرب	-8.58182
▁2007	-8.58262
▁دیکھا	-8.58321
جی	-8.58396
زم	-8.58497
▁تاک	-8.58584
یلو	-8.59084
,	-8.59126
▁دفاع	-8.59258
▁حد	-8.59343
▁ملکہ	-8.59407
▁میک	-8.5942
▁7	-8.59482
▁C	-8.59587
▁رہی	-8.59675
▁نقصان	-8.59892
▁نہ	-8.59908
▁آپ	-8.60302
▁با	-8.60628
▁دوسرا	-8.60665
c	-8.60909
▁دریافت	-8.6091
▁دیتے	-8.61233
▁2013	-8.61301
▁شہری	-8.61358
▁مدت	-8.61438
▁لکھا	-8.61707
▁مار	-8.61722
▁افریقی	-8.6194
▁وزیر	-8.61948
▁مت	-8.61988
▁قانونی	-8.62137
نس	-8.62232
کا	-8.62247
▁جنوری	-8.62489
▁نسلی	-8.62513
p	-8.62747
تی	-8.62773
▁نمبر	-8.6285
▁بغیر	-8.62854
▁نقطہ	-8.63243
▁پسند	-8.63283
▁راست	-8.6329
▁ذ	-8.6338
▁کلب	-8.63461
▁مقام	-8.63514
t	-8.63805
▁مواد	-8.64168
▁تجویز	-8.64298
▁وفاقی	-8.64298
▁2009	-8.64304
▁روشنی	-8.64416
▁اوسط	-8.64436
اؤ	-8.64462
▁قرار	-8.64562
▁بند	-8.64644
▁شکست	-8.64696
جام	-8.65058
▁سان	-8.65078
▁لڑائی	-8.65504
▁تحریک	-8.65632
▁خصوصیات	-8.65866
▁مشترک	-8.65901
▁نمائندگی	-8.65904
ٹا	-8.66072
▁جرمنی	-8.66462
▁طویل	-8.66577
ال	-8.66658
▁شوپن	-8.66716
▁حصوں	-8.66839
▁مجموع	-8.6684
▁علاقہ	-8.66848
▁شرح	-8.67121
▁دارالحکومت	-8.67667
▁2012	-8.6781
▁طریقہ	-8.67832
کر	-8.68053
▁داخل	-8.68291
▁2014	-8.68361
▁مذہب	-8.68492
▁دے	-8.6854
▁چھوٹے	-8.68573
▁آج	-8.68595
▁تعلقات	-8.68597
▁منعقد	-8.6877
▁اوپر	-8.68851
▁کیتھولک	-8.68909
▁کینیڈا	-8.68909
▁جیسا	-8.69069
▁ری	-8.69281
▁اختیار	-8.69304
▁مارکیٹ	-8.69336
▁مالی	-8.69401
رو	-8.69633
▁شناخت	-8.69745
▁آ	-8.70713
▁بل	-8.7082
▁اکتوبر	-8.71013
ڈر	-8.71278
▁مقبول	-8.71281
▁مقابلہ	-8.71303
فی	-8.7147
u	-8.71478
▁بڑھ	-8.71605
▁اپریل	-8.7201
▁منسلک	-8.72153
▁خطے	-8.72408
▁عثمانی	-8.72565
▁کاؤنٹی	-8.72841
▁ورک	-8.72944
▁عرص	-8.73307
▁سفر	-8.7332
▁اختتام	-8.73452
▁نمایاں	-8.73452
▁ساحل	-8.73458
سٹر	-8.7357
▁چلت	-8.7362
▁گر	-8.73726
]	-8.73743
▁پال	-8.73803
▁بنا	-8.73805
▁اضاف	-8.73849
▁لکڑی	-8.73889
▁مزید	-8.7404
قدرتی	-8.74075
▁ماڈل	-8.74181
▁ہیون	-8.74193
▁نظریہ	-8.74501
▁سو	-8.74585
▁جولائی	-8.74622
▁اگست	-8.74767
▁عدالت	-8.74924
1	-8.7503
▁اینٹی	-8.75417
▁گئی۔	-8.7563
▁نیٹ	-8.7593
▁فام	-8.75974
/	-8.75979
▁دسمبر	-8.7612
▁خدا	-8.7625
▁پور	-8.76499
▁ساؤتھ	-8.76552
▁صلاحیت	-8.76634
▁پایا	-8.76843
▁فتح	-8.77
▁بورڈ	-8.77043
▁فیصلہ	-8.77235
▁اسٹریٹ	-8.77358
▁بڑھت	-8.77404
▁متعلق	-8.77429
▁ایکٹ	-8.7768
▁کردیا۔	-8.77789
▁تصور	-8.77796
▁گرد	-8.778
▁ہوسکت	-8.77807
▁چھ	-8.78108
▁ورلڈ	-8.78366
▁ریاستوں	-8.78415
▁دی۔	-8.78477
m	-8.78556
ڈی	-8.78811
▁افریقہ	-8.78822
▁افواج	-8.79283
▁ڈچ	-8.79293
▁قیمت	-8.79316
▁اپ	-8.79353
▁مضبوط	-8.79401
l	-8.79564
▁رکھتا	-8.79796
▁دریا	-8.79894
▁ذکر	-8.80052
▁روس	-8.80149
▁فرق	-8.80361
▁بغاوت	-8.80522
4	-8.80599
▁خدمت	-8.80678
▁شادی	-8.80681
▁کامیابی	-8.80717
▁یونان	-8.80823
▁ناصر	-8.80837
▁قوم	-8.80879
▁آرٹ	-8.80889
▁سائنس	-8.80944
▁آیا	-8.80966
ق	-8.81187
▁پتہ	-8.81221
▁سفید	-8.81305
▁شہروں	-8.81359
▁براہ	-8.81478
محدود	-8.81597
▁کلاسیکی	-8.8162
▁2006	-8.81786
ڈو	-8.82087
▁ایپل	-8.82394
▁آب	-8.82409
▁پیداوار	-8.82433
▁2015	-8.82738
▁جنہ	-8.82807
▁سبب	-8.82808
▁شخص	-8.82858
▁ویژن	-8.82938
▁سروس	-8.82998
▁دستیاب	-8.83048
▁کرکے	-8.83065
▁عالمی	-8.83082
تہائی	-8.83143
S	-8.83389
▁البم	-8.83771
وک	-8.83978
▁جارج	-8.83986
▁توسیع	-8.84096
▁ممکنہ	-8.84113
▁میکسیکو	-8.8466
▁پالیسی	-8.84663
g	-8.84955
▁یہودی	-8.85147
▁بیس	-8.85149
▁اتحاد	-8.85333
▁بہتر	-8.85497
ذا	-8.85516
▁انقلاب	-8.85664
▁حرارت	-8.85804
یٰ	-8.8582
▁گی	-8.8589
▁ریاستی	-8.85898
▁آواز	-8.85967
▁تخلیق	-8.85968
▁مختصر	-8.86172
3	-8.86279
▁زندہ	-8.86298
▁'	-8.86463
▁بحری	-8.86726
▁نومبر	-8.86794
ط	-8.86838
▁پابندی	-8.86874
▁کیڑے	-8.86981
▁تعلق	-8.87002
ٹس	-8.87139
▁سیاہ	-8.87299
▁من	-8.87444
وم	-8.87522
▁فری	-8.8761
▁دیکھ	-8.87688
▁سربراہ	-8.87963
▁خصوصی	-8.88065
ؤں	-8.88312
▁کرسکت	-8.8858
▁سائٹ	-8.88622
▁تعریف	-8.88637
▁پیچھے	-8.8867
▁جاپان	-8.88692
▁فوجیوں	-8.88978
نپولین	-8.89146
▁محفوظ	-8.89146
▁دستخط	-8.89146
▁حقوق	-8.89657
▁انسان	-8.89771
k	-8.89779
▁ووٹ	-8.89922
▁جاپانی	-8.89943
▁ہجرت	-8.89999
▁پولیس	-8.90086
▁شاہی	-8.90298
▁اسی	-8.90334
▁پوپ	-8.9038
▁ترین	-8.90622
ما	-8.90716
▁معیشت	-8.90859
▁منصوبہ	-8.90859
▁نقل	-8.90859
▁مصر	-8.90926
▁2005	-8.91045
▁رکھتے	-8.91058
▁قرون	-8.9139
▁تسلی	-8.91595
کی	-8.91612
▁مستقل	-8.91626
h	-8.91669
▁جانوروں	-8.91749
▁راک	-8.91845
▁آہستہ	-8.91902
▁سامن	-8.91958
▁دیر	-8.92324
▁سمندری	-8.92425
▁کاروبار	-8.92427
▁میزبان	-8.92603
▁چاہئے	-8.92613
▁ویڈیو	-8.92933
▁تھیٹر	-8.9299
ٹری	-8.93088
▁مربع	-8.93132
▁ریڈیو	-8.93157
▁ناف	-8.93173
▁تحقیق	-8.93179
▁اسکولوں	-8.93272
ٹک	-8.93347
▁ثقافتی	-8.9335
▁آلات	-8.93367
▁فورس	-8.93416
▁کمیونٹی	-8.93669
جس	-8.93745
▁رپورٹ	-8.93775
5	-8.93963
یم	-8.93978
جو	-8.93998
▁معاشرتی	-8.94199
پا	-8.94356
▁پودوں	-8.94378
▁لگایا	-8.94393
می	-8.94447
▁وسط	-8.94534
▁نیا	-8.94546
▁2000	-8.94592
▁ذیل	-8.94648
▁میوزیم	-8.94736
فٹ	-8.94977
▁تھیں۔	-8.95028
▁لاطینی	-8.95124
▁نجی	-8.95162
▁آس	-8.95228
▁جزائر	-8.95277
▁بینڈ	-8.95279
کن	-8.95305
ع	-8.95442
▁اوکلاہوما	-8.95458
▁مقرر	-8.95458
▁عرب	-8.95647
r	-8.95666
▁بالآخر	-8.95821
▁گا۔	-8.95823
یشن	-8.95872
▁تباہ	-8.95951
▁گھروں	-8.9598
d	-8.96046
▁انتظام	-8.96137
▁کامیاب	-8.96506
▁جزیرہ	-8.96645
▁معاہدہ	-8.96733
▁سکتی	-8.96747
▁نتیجہ	-8.96802
▁سابق	-8.97176
▁ڈیم	-8.97217
▁بندرگاہ	-8.97284
▁بلین	-8.97478
▁آمدنی	-8.9748
▁25	-8.9755
▁بیک	-8.97601
▁سرگرمی	-8.97773
b	-8.97832
▁اعظم	-8.97839
▁وے	-8.98179
▁ورژن	-8.9821
▁گئیں	-8.98317
▁ہیڈ	-8.98549
▁صحت	-8.98583
▁منظم	-8.98583
▁A	-8.98607
▁قبول	-8.98611
▁از	-8.987
▁M	-8.98752
in	-8.98768
▁لینے	-8.98896
بر	-8.99059
▁کورٹ	-8.99089
▁ڈیل	-8.99242
▁فروری	-8.99337
▁خصوصیت	-8.99643
گو	-8.99743
بہترین	-8.99893
▁سابقہ	-8.99897
▁9	-8.99959
▁جسم	-8.99976
▁مخصوص	-9.00088
تیزی	-9.00141
▁ہتھیار	-9.00278
▁S	-9.00362
بو	-9.00403
مین	-9.00406
al	-9.00545
▁جے	-9.00843
▁سخت	-9.0085
▁کانگریس	-9.0085
▁نظریات	-9.00992
▁جنسی	-9.01031
▁کیں	-9.01041
دہی	-9.01079
اقوام	-9.01159
▁باوجود	-9.01232
▁عنوان	-9.01232
▁کاری	-9.01361
▁کارروائی	-9.01424
re	-9.01439
▁رہائشی	-9.01453
▁رہنما	-9.01571
▁یافتہ	-9.01617
▁سمندر	-9.0162
▁ملی	-9.01643
▁مقامات	-9.01993
▁مرکوز	-9.02002
A	-9.02064
▁کافی	-9.022
انا	-9.02239
▁کرایا	-9.02276
لینڈ	-9.02366
▁میڈیا	-9.02406
▁ہونا	-9.02461
▁کرے	-9.02538
▁میدان	-9.0278
▁جواب	-9.02813
▁°	-9.02827
خ	-9.02958
▁ضروری	-9.03043
▁ڈیٹا	-9.03249
▁ٹیوٹ	-9.03653
▁کھیلوں	-9.03756
▁مسترد	-9.03757
▁عملی	-9.04031
اضح	-9.04151
▁اندرونی	-9.04152
▁بوسٹن	-9.04393
گر	-9.04556
▁سرخ	-9.04571
▁اکثریت	-9.04617
▁نیچے	-9.04651
لک	-9.04734
▁باقی	-9.04819
▁اسٹیٹ	-9.04855
▁سلسل	-9.04944
▁جزو	-9.04946
▁آئیڈل	-9.04979
f	-9.05008
اب	-9.05141
▁ریلوے	-9.05145
▁کمپیوٹر	-9.05492
▁وائٹ	-9.05583
ar	-9.05763
روغ	-9.05764
مر	-9.05773
پر	-9.05852
▁اطالوی	-9.05855
▁امریکن	-9.05944
▁غلام	-9.05988
▁زبانوں	-9.06131
▁رہنے	-9.06152
▁گئے۔	-9.06183
▁ملکی	-9.06236
▁پوسٹ	-9.06236
گا	-9.06417
▁آباد	-9.06773
پی	-9.06797
0،000	-9.06853
▁حق	-9.06956
لو	-9.07164
یز	-9.07222
▁وابستہ	-9.07361
▁فعال	-9.07361
▁کھانے	-9.07459
▁طریقوں	-9.0752
▁برعکس	-9.07565
▁زیر	-9.07588
وف	-9.07855
▁بینک	-9.08081
▁فیلڈ	-9.08176
▁اداروں	-9.08183
▁ترک	-9.08273
▁دورہ	-9.08284
▁سامنے	-9.0829
▁گورنر	-9.08293
رین	-9.08308
▁ہال	-9.08314
مپٹن	-9.08394
▁انسٹی	-9.08462
▁تنازعہ	-9.08562
▁ملت	-9.0864
00	-9.08667
▁قوانین	-9.08798
er	-9.0902
▁30	-9.09097
▁عیسائی	-9.09103
دی	-9.09129
▁مجبور	-9.09213
▁اگل	-9.09265
▁کوڈ	-9.09392
▁خارج	-9.0942
▁الفاظ	-9.09629
▁1990	-9.09635
▁مہم	-9.09748
▁رائل	-9.09889
اظ	-9.10092
▁ریل	-9.10208
▁قتل	-9.10257
▁سیریز	-9.1026
▁ایشن	-9.10484
▁ریڈ	-9.10559
▁لح	-9.10708
▁جنگی	-9.10874
▁ایسوسی	-9.11103
▁تاج	-9.11126
▁یونٹ	-9.11127
▁منظور	-9.11199
▁آسٹریلیا	-9.11283
▁رفتار	-9.11314
▁اول	-9.11416
وسٹن	-9.11495
یس	-9.11541
▁بجلی	-9.11544
▁ویئر	-9.1166
ص	-9.11699
▁ایسٹونیا	-9.11738
▁ہندوستانی	-9.11891
▁حروف	-9.1195
▁اڈے	-9.11954
رس	-9.12198
▁آن	-9.1244
▁جنس	-9.12549
▁فائدہ	-9.12807
▁ہوگئی	-9.12846
I	-9.12899
▁1970	-9.13031
us	-9.13334
▁حکم	-9.13422
▁طریق	-9.1346
▁سمیت	-9.13687
▁پوڈ	-9.13789
▁تنقید	-9.13805
▁شماری	-9.13971
سو	-9.13997
▁عائ	-9.1401
▁بولنے	-9.14112
▁چاہت	-9.14429
▁آنے	-9.14548
▁ٹاپ	-9.14783
▁آرڈر	-9.14842
▁سیٹ	-9.15018
▁ملکیت	-9.15143
▁کریں	-9.15151
▁سرحد	-9.154
▁ولیم	-9.15408
▁دعو	-9.15411
▁اصول	-9.15424
▁ایسٹ	-9.15456
▁100	-9.15628
▁2004	-9.15654
▁ترجمہ	-9.15723
▁پائے	-9.15782
▁واشنگٹن	-9.1609
▁دہ	-9.16218
▁پھیل	-9.16251
▁مسائل	-9.16314
لال	-9.16351
▁بر	-9.16375
▁ارد	-9.16384
▁پارلیمنٹ	-9.16536
▁I	-9.16539
وز	-9.16547
▁اشرافیہ	-9.16759
▁تلاش	-9.16759
▁صارفین	-9.16788
6	-9.17078
▁ناکام	-9.17151
▁مارشل	-9.17212
▁جلد	-9.17231
▁کیرولائنا	-9.17433
▁کیری	-9.17492
▁ٹائمز	-9.17659
▁نوجوان	-9.17885
▁نصف	-9.18126
▁سپریم	-9.18127
▁دائر	-9.18153
E	-9.18205
▁24	-9.18265
▁ہاور	-9.18281
من	-9.1839
▁سیل	-9.18426
▁لہ	-9.18451
▁اچھ	-9.18471
▁فار	-9.18517
▁شمسی	-9.18569
z	-9.18578
▁دیئے	-9.18609
▁گرما	-9.18733
▁قرض	-9.18849
▁مردوں	-9.1888
▁کالونی	-9.19026
▁ایونیو	-9.19259
▁حیاتیات	-9.19458
▁درخواست	-9.19484
ائڈ	-9.19539
▁پسندی	-9.19556
▁حل	-9.19602
انی	-9.19735
▁ہوئی۔	-9.19842
▁رہائش	-9.1991
▁متبادل	-9.19945
▁ڈویژن	-9.19945
▁گیم	-9.20251
▁لانچ	-9.20409
▁سائز	-9.20475
یہ	-9.20501
▁21	-9.20563
▁ڈبلیو	-9.20648
▁مصنوعات	-9.20705
▁انکار	-9.20747
▁گرج	-9.20933
▁ڈگری	-9.21108
▁پوزیشن	-9.21139
▁F	-9.21145
▁حکمران	-9.21324
▁مشعل	-9.21342
▁ٹیکس	-9.21418
▁پل	-9.21473
یل	-9.21503
تے	-9.21532
▁علاقائی	-9.21577
▁مقیم	-9.21577
▁واقعات	-9.21581
▁اینٹینا	-9.2164
▁آئزن	-9.21812
▁براعظم	-9.21812
▁ہوئے۔	-9.21828
فورڈ	-9.21848
▁پیدائش	-9.21882
▁گانے	-9.21911
▁ماحولیات	-9.22056
▁تیز	-9.22091
en	-9.22168
▁وان	-9.2219
▁سرمایہ	-9.22294
▁کمانڈ	-9.22311
▁بیونسے	-9.22391
▁گرینڈ	-9.22418
▁صنعت	-9.22451
▁ڈو	-9.22528
▁بیئر	-9.22642
▁رسوخ	-9.22759
▁جیمز	-9.22813
▁سپر	-9.22857
▁نیوز	-9.22897
▁اسرائیل	-9.22989
▁نمائش	-9.22997
▁ہوگئے	-9.23308
▁اسپین	-9.23449
اء	-9.23457
▁باضابطہ	-9.23476
▁قریبی	-9.23493
▁پیشہ	-9.23619
▁کارکردگی	-9.23715
▁اٹلی	-9.23717
ں	-9.23717
▁آئرلینڈ	-9.23718
▁موٹر	-9.23766
▁کپ	-9.23957
la	-9.24149
ٹرنیٹ	-9.24149
▁والد	-9.24212
▁روک	-9.24277
20	-9.24416
▁میچ	-9.24493
▁کھو	-9.24532
▁40	-9.24637
▁حوصل	-9.2468
▁مقدار	-9.2468
▁دہل	-9.24702
▁پرند	-9.24722
▁معلومات	-9.24735
▁جسمانی	-9.24741
le	-9.25182
▁یہودیوں	-9.2525
▁ییل	-9.25264
▁لائبریری	-9.2541
▁کوریا	-9.25479
▁حالت	-9.2548
▁چھوٹی	-9.25525
8	-9.25557
an	-9.25586
▁زلزل	-9.25665
ض	-9.25884
▁دماغ	-9.25899
▁آسٹریا	-9.259
▁آگے	-9.25987
ڈن	-9.26101
▁بیکٹیریا	-9.26146
▁ویل	-9.26147
▁گاہ	-9.26172
▁روایت	-9.26267
▁ترتیب	-9.26391
▁شمار	-9.26402
▁روشن	-9.26439
▁صوتی	-9.26447
▁ڈسک	-9.26617
▁داری	-9.26627
چی	-9.26663
▁چیف	-9.26692
▁بارش	-9.26927
▁کیے۔	-9.26989
▁بنائے	-9.27029
or	-9.27031
▁پہنچ	-9.27129
▁ایجاد	-9.27136
▁سائنسی	-9.27166
▁سازی	-9.27169
▁ووڈ	-9.27302
▁علامت	-9.2749
▁میڈونا	-9.27882
▁وطن	-9.27882
▁ماہر	-9.27902
M	-9.27912
▁سول	-9.28089
▁شاخ	-9.28148
▁حقیقت	-9.28172
▁گ	-9.28205
ء	-9.28368
وری	-9.2837
▁اپنایا	-9.28528
▁فون	-9.2858
لا	-9.28776
▁وقف	-9.28888
▁نارتھ	-9.28936
▁آئے	-9.28981
افی	-9.29033
▁فارمیٹ	-9.2916
گن	-9.29171
▁تبت	-9.29195
ارڈ	-9.29384
▁قیام	-9.29461
▁الزام	-9.29524
▁زور	-9.29563
▁گرم	-9.29781
▁استد	-9.29783
▁منظوری	-9.29785
▁گروہوں	-9.29802
▁عیسوی	-9.29905
مو	-9.29906
▁ہوسکتا	-9.30077
اد	-9.30128
▁مہین	-9.30231
اسلامی	-9.30232
رن	-9.30398
▁مسلسل	-9.30417
▁N	-9.30726
▁برف	-9.30735
▁عروج	-9.30932
▁اسٹیڈیم	-9.30933
▁سنگل	-9.31152
منٹ	-9.31155
▁ڈھانچے	-9.3119
▁کت	-9.31382
▁عہد	-9.31447
▁شراکت	-9.31449
▁سیٹلائٹ	-9.31449
▁الیکٹرک	-9.31479
▁دیتی	-9.31674
▁اقدام	-9.31722
یڈ	-9.31783
▁50	-9.31953
▁آپریشن	-9.31966
▁ایکس	-9.32079
▁کیمپس	-9.32095
▁مخالف	-9.32121
ٹین	-9.32135
▁لو	-9.32177
▁پروٹسٹنٹ	-9.3223
▁صدارت	-9.32231
▁پرتگالی	-9.32246
▁مرحل	-9.32251
O	-9.32368
جیسے	-9.32492
▁ٹاؤن	-9.32495
▁پرتگال	-9.32551
50	-9.32604
▁شرک	-9.32786
▁پب	-9.32852
▁ایڈ	-9.32912
▁جینیات	-9.32915
▁آرتھوڈوکس	-9.33018
▁ڈیجیٹل	-9.33019
▁پائی	-9.33195
▁گے	-9.33259
سا	-9.33319
رسائی	-9.33376
▁تیسری	-9.33408
▁کور	-9.33518
P	-9.336
▁خانہ	-9.33739
▁ڈیٹرائٹ	-9.33811
▁1980	-9.33823
▁آرمینیائی	-9.33837
▁پڑا	-9.33911
▁E	-9.33995
▁گرین	-9.34022
▁سات	-9.34076
▁تجربہ	-9.34077
بیرونی	-9.3415
نو	-9.34263
▁نانجنگ	-9.34344
▁ایگزیکٹو	-9.34378
ra	-9.34565
▁می	-9.34586
▁بیٹ	-9.34733
▁پار	-9.34767
▁بیماری	-9.34808
▁ٹو	-9.34909
▁رات	-9.3499
نز	-9.3504
شی	-9.35067
▁لگانے	-9.35203
قات	-9.35324
▁سوئٹزرلینڈ	-9.35418
▁تیل	-9.3552
▁نوٹ	-9.35535
▁گلی	-9.35587
▁معاملات	-9.35743
▁کلاس	-9.35756
▁پہاڑی	-9.35795
9	-9.35799
لم	-9.3606
▁مقدم	-9.36182
رک	-9.362
▁اثرات	-9.36372
▁ٹائم	-9.36421
▁سن	-9.36438
▁ریکارڈنگ	-9.36473
▁علاج	-9.36503
با	-9.36747
▁نامزد	-9.36758
C	-9.36777
▁گیس	-9.36895
▁زون	-9.36943
▁کرسکتا	-9.3716
▁چارلس	-9.37321
▁عنصر	-9.37325
▁اخراج	-9.37333
▁ونڈو	-9.37446
▁پورٹ	-9.37554
▁بک	-9.37599
▁(19	-9.37642
چون	-9.37852
▁انحصار	-9.37877
▁تانبے	-9.37877
▁ضلع	-9.37877
▁طالب	-9.37877
▁فریڈرک	-9.37877
▁فلسفی	-9.38014
▁دان	-9.38114
▁عد	-9.38283
▁جائز	-9.38434
▁1960	-9.38444
▁بحران	-9.38466
▁افزائی	-9.38679
▁فارم	-9.38694
▁ذاتی	-9.38729
باؤ	-9.38844
▁روز	-9.38861
▁باقاعد	-9.38882
▁د	-9.3894
▁بشمول	-9.38965
▁اقسام	-9.3899
▁البرٹ	-9.3901
▁اظہ	-9.39068
▁حفاظت	-9.39265
▁مواصلات	-9.3927
▁دوست	-9.39327
کٹ	-9.39348
▁تھامس	-9.39424
▁مزدور	-9.39551
▁ایران	-9.39695
▁ٹور	-9.39718
▁منتقلی	-9.39765
ڑ	-9.39822
▁پین	-9.39834
▁پہنچا	-9.39881
▁مرکب	-9.3999
▁دعوی	-9.39993
▁اطلاع	-9.40115
▁اصلاحات	-9.40177
▁منگ	-9.40224
▁چیمپئن	-9.40398
نک	-9.40532
▁فلسفہ	-9.40609
▁کانفرنس	-9.40682
▁فائر	-9.40683
▁مالک	-9.40762
▁پیرو	-9.40798
th	-9.40889
▁پلے	-9.41214
▁تبادل	-9.41253
▁سماجی	-9.41253
چر	-9.41532
▁کھانا	-9.41582
گل	-9.41603
is	-9.4176
▁بری	-9.41767
▁جماعت	-9.41829
▁آٹھ	-9.41831
▁بالغ	-9.41861
▁پاور	-9.41893
▁صومالی	-9.42055
▁ترجیح	-9.42115
▁اعداد	-9.42116
ویل	-9.42226
▁آؤٹ	-9.42404
▁اجزاء	-9.42404
▁صنف	-9.42404
▁حالی	-9.42744
ڈین	-9.43053
اک	-9.4319
▁بیونسی	-9.43216
حقیقی	-9.43261
▁پڑتا	-9.43265
▁میلبورن	-9.43283
▁پرست	-9.43414
▁لایا	-9.43439
▁نائیجیریا	-9.43568
▁2003	-9.43586
جن	-9.43632
وڈ	-9.43672
▁وار	-9.43698
▁رقم	-9.43862
▁قواعد	-9.43862
▁موزیک	-9.43864
▁الحال	-9.43866
▁موجودگی	-9.43931
حکام	-9.43944
▁زی	-9.44
وب	-9.44033
▁محل	-9.44156
وٹ	-9.44188
▁نیپ	-9.44371
▁اتفاق	-9.44451
▁مشین	-9.44574
▁K	-9.44671
▁بنائی	-9.44705
▁ماحول	-9.44736
D	-9.44746
▁اٹلانٹ	-9.44747
▁مطالب	-9.45043
▁آرمی	-9.45095
▁ٹیسٹ	-9.45137
▁سامان	-9.45329
▁جج	-9.45366
▁ڈاکٹر	-9.45368
▁ورزی	-9.45369
ام	-9.45486
▁پتھر	-9.4564
▁اسمبلی	-9.4564
▁شیل	-9.45708
▁کاغذ	-9.45813
▁پلائیماؤتھ	-9.45939
دید	-9.46103
▁شپ	-9.4617
▁بٹ	-9.46231
ہمیشہ	-9.46239
▁یورینی	-9.46337
▁مظاہرہ	-9.46387
▁روڈ	-9.46788
▁تجزی	-9.46836
ارکین	-9.46983
▁کراس	-9.4707
▁ترمیم	-9.47146
▁لیا۔	-9.47153
▁پیٹنٹ	-9.47169
▁کمیٹی	-9.47236
پو	-9.47251
▁بڑھا	-9.47363
▁ہان	-9.47387
7	-9.47399
▁رکاوٹ	-9.47449
▁فیصل	-9.47889
▁آت	-9.4789
▁بلک	-9.47951
w	-9.47959
اید	-9.48079
▁G	-9.48209
▁کھولا	-9.48282
▁فراہمی	-9.48301
▁بشپ	-9.48455
کتے	-9.48526
▁گئیں۔	-9.48642
▁ہوجات	-9.48677
▁1950	-9.48698
▁گانا	-9.48721
▁خطر	-9.48751
▁توقع	-9.48965
▁چلنے	-9.49073
▁اسکاٹ	-9.49297
▁کمزور	-9.49302
▁میسن	-9.49339
▁2001	-9.49351
▁پولی	-9.49591
▁خشک	-9.49603
▁معمولی	-9.4968
▁ہدایت	-9.4974
▁مجموعہ	-9.49764
دہ	-9.4991
▁طوفان	-9.49915
▁مزاحیہ	-9.49915
▁ادارہ	-9.49917
▁دیوار	-9.50008
▁23	-9.50043
▁غلط	-9.50199
▁پول	-9.50206
▁برازیل	-9.50227
ڑوں	-9.50267
یٹ	-9.50323
▁خاتمے	-9.50541
▁چیک	-9.50712
▁صنعتی	-9.50827
▁وجود	-9.50856
▁ویب	-9.50866
▁مزاحمت	-9.50897
▁کیریئر	-9.51044
▁درخت	-9.51171
▁دلچسپ	-9.51171
▁عناصر	-9.51171
▁پچھل	-9.51171
▁میگزین	-9.51171
▁ملاقات	-9.5118
وان	-9.51228
▁ہلاک	-9.51388
▁میٹروپولیٹن	-9.51487
▁نتائج	-9.51487
▁لائٹ	-9.51513
on	-9.51562
40	-9.51658
▁بھیجا	-9.51742
▁تربیت	-9.51806
▁میامی	-9.5181
▁آڈیو	-9.51813
▁رکھت	-9.5194
▁نمو	-9.51977
▁تصویر	-9.52123
▁برونکس	-9.52132
▁ٹکسن	-9.52132
▁سالہ	-9.52178
ri	-9.52229
III	-9.52236
لز	-9.52311
▁مظاہر	-9.52331
es	-9.52385
▁اختلاف	-9.52443
▁دفتر	-9.52445
ch	-9.52592
▁ہار	-9.52728
x	-9.52743
▁ٹینیسی	-9.52764
▁ملا	-9.52765
▁در	-9.52774
▁زنک	-9.52801
▁مریم	-9.52869
▁رینج	-9.52878
▁فین	-9.53062
▁ارتقا	-9.53085
▁موثر	-9.53087
▁تعاون	-9.531
▁ہوں	-9.53116
▁مصری	-9.53262
.3	-9.53379
▁تعین	-9.53405
▁کنسرٹ	-9.53408
▁انیسو	-9.5343
▁جذبات	-9.53447
▁کنگ	-9.53492
▁ہوگئے۔	-9.53632
▁مصنف	-9.53646
▁اقت	-9.53739
▁رکن	-9.53814
▁شہریوں	-9.53918
▁فیڈرل	-9.54023
▁ہارڈ	-9.54063
▁اونچائی	-9.54078
▁ملازمت	-9.54085
▁بلیک	-9.54102
▁ہٹ	-9.54201
▁امن	-9.54223
▁دس	-9.54239
▁خیالات	-9.54282
F	-9.54321
▁رو	-9.54439
▁سائیکل	-9.54473
▁ہوم	-9.54507
،000	-9.54516
▁ماہ	-9.54681
▁سمجھ	-9.54708
▁پھانسی	-9.54708
▁پیچیدہ	-9.54708
عث	-9.54711
▁کپاس	-9.54749
فر	-9.54825
ne	-9.54951
▁شکاری	-9.55049
▁اسٹور	-9.55053
چو	-9.55078
▁چیت	-9.55208
▁جیسی	-9.55233
▁لہر	-9.55265
▁منصوبے	-9.55365
▁روکن	-9.55421
ڈا	-9.55456
T	-9.5546
▁میئر	-9.55462
ئر	-9.55525
▁تحفظ	-9.55551
▁اہمیت	-9.55601
▁کمیونسٹ	-9.55704
▁لارڈ	-9.55728
▁غلبہ	-9.55743
▁فضائی	-9.55881
▁اخبار	-9.55884
▁سوسائٹی	-9.56026
▁ٹکنالوجی	-9.56026
▁دولت	-9.56029
▁علیحدگی	-9.56039
طے	-9.56048
دریائے	-9.56113
▁نما	-9.56114
▁رجحان	-9.56208
▁جانور	-9.5633
▁ڈیاگو	-9.56359
▁الزبتھ	-9.5636
▁مسلمان	-9.5639
▁دستاویز	-9.56566
▁احتجاج	-9.56692
▁سیئٹل	-9.56692
▁یونیورسل	-9.56692
▁امداد	-9.56693
▁پولینڈ	-9.56709
▁سورج	-9.56714
▁نگرانی	-9.57026
▁اسٹوڈیو	-9.57026
▁رابرٹ	-9.57028
▁اشار	-9.57063
▁آلہ	-9.5711
▁میں۔	-9.57225
▁لوئس	-9.57236
N	-9.57252
▁معاشرے	-9.57362
▁برک	-9.57408
▁حالات	-9.57479
▁مال	-9.57503
▁متن	-9.57534
▁رہتا	-9.57551
▁کاپی	-9.5763
▁چاہئے۔	-9.5768
▁بڑھان	-9.57685
▁ساز	-9.5773
▁دوم	-9.57878
سلح	-9.57884
▁ٹریک	-9.57948
▁ہوگئی۔	-9.57959
▁پوری	-9.58014
▁حامی	-9.58037
▁گوئی	-9.58078
▁جذب	-9.58245
▁ہنری	-9.58246
▁مور	-9.58278
▁رد	-9.58342
▁فیسٹیول	-9.58375
▁ڈائی	-9.58681
رشتہ	-9.58689
چوان	-9.58704
▁ادارے	-9.58723
▁مقدس	-9.58726
▁بس	-9.58772
صد	-9.58812
شت	-9.58878
▁نفسیات	-9.59057
▁قبرص	-9.59124
▁انٹر	-9.59152
▁26	-9.59369
▁الاسکا	-9.59399
▁مستحکم	-9.59399
▁پریمیئر	-9.594
▁2002	-9.5943
▁پانچو	-9.59456
▁بادشاہی	-9.59547
نج	-9.59572
▁فہرست	-9.59618
▁دل	-9.59648
▁جاسکتی	-9.59652
▁سبز	-9.59711
▁افتتاح	-9.59743
▁لکھی	-9.59743
▁کاتالان	-9.59743
▁عہدیدار	-9.59743
▁مینڈولین	-9.59744
▁والدہ	-9.59761
▁بحر	-9.59818
▁پو	-9.59831
ur	-9.59879
▁بم	-9.5988
▁P	-9.59895
▁بناتے	-9.59926
L	-9.6002
▁سرما	-9.60038
▁ڈیموکریٹ	-9.60089
▁لمبائی	-9.60108
▁ادب	-9.60141
▁پاپ	-9.60146
▁ڈائریکٹر	-9.60153
▁اولمپک	-9.60186
30	-9.60248
▁28	-9.60304
▁انٹرنیشنل	-9.60434
▁محکم	-9.60434
▁لاگو	-9.60496
برگ	-9.6052
▁بدل	-9.60625
▁موضوع	-9.60636
▁گے۔	-9.60656
▁T	-9.60657
وین	-9.60692
▁تصدیق	-9.60781
at	-9.60999
▁لائسنس	-9.61129
▁ذرائع	-9.6113
▁اڈہ	-9.61132
▁پبلک	-9.61145
عض	-9.61147
یک	-9.612
▁بحالی	-9.61208
▁آرمینیا	-9.61446
▁کردی	-9.61473
▁پلیٹ	-9.61586
او	-9.61621
انو	-9.61778
▁کمیشن	-9.61793
▁غالب	-9.6183
ئن	-9.61855
▁مؤ	-9.61875
.0	-9.61892
▁عوام	-9.62102
▁مثبت	-9.62182
▁اشاعت	-9.62182
▁شیشے	-9.62182
▁ڈارون	-9.62186
▁باشند	-9.62278
▁نیز	-9.62341
سل	-9.62392
▁چند	-9.62578
▁بھاری	-9.62584
▁کہانی	-9.62695
▁22	-9.62757
▁پورا	-9.62779
▁سمجھت	-9.62795
▁مسئلہ	-9.62858
▁کثیر	-9.62892
▁امریکیوں	-9.62963
▁ماہرین	-9.63023
▁لیبل	-9.63044
▁جلت	-9.63103
▁فوٹو	-9.63111
▁لاج	-9.63126
▁خط	-9.63199
ئس	-9.632
فنکاروں	-9.63236
▁انفرادی	-9.63254
▁سڑک	-9.63278
.5	-9.63381
▁انتظامیہ	-9.63587
▁مشاہد	-9.63603
▁نچل	-9.63604
ia	-9.63727
▁ہائیک	-9.63747
▁بانی	-9.63781
▁بارسلون	-9.63962
▁کمانڈر	-9.63985
▁متعلقہ	-9.64017
▁شعب	-9.64085
ھ	-9.64119
▁فو	-9.64126
▁گو	-9.64206
▁ع	-9.64252
▁چوٹی	-9.64256
غور	-9.64266
▁مشن	-9.64272
▁پریس	-9.643
▁پیمائش	-9.64321
▁کارپوریشن	-9.64321
▁ایشیاء	-9.64383
▁نشریات	-9.64384
▁شام	-9.64386
▁پن	-9.64475
▁آسان	-9.6452
▁امکان	-9.64541
▁گواہ	-9.64685
▁درد	-9.64727
حکمت	-9.6473
▁معن	-9.64743
▁ہٹا	-9.64768
▁لاگ	-9.64877
ویں	-9.64902
▁اسکور	-9.64902
▁چارٹر	-9.6493
▁ملتا	-9.65033
▁صوبے	-9.65044
▁قلع	-9.65044
▁تہوار	-9.65049
▁راستے	-9.65051
ro	-9.65113
▁یقین	-9.65152
.1	-9.65168
▁چونک	-9.6522
▁تکنیک	-9.65262
▁فوری	-9.65335
▁نشر	-9.65354
غ	-9.65397
▁ڈال	-9.65401
▁عارض	-9.65408
▁فلوریڈا	-9.65408
▁معاصر	-9.6541
حصر	-9.6541
▁ہائیڈروجن	-9.65413
▁فنڈ	-9.65489
▁ایوارڈ	-9.65507
▁عطی	-9.65519
▁مند	-9.65744
▁ڈیپارٹمنٹ	-9.65773
▁سگنل	-9.65773
▁منظر	-9.65791
▁تیسرا	-9.65792
▁فائل	-9.65794
یرہ	-9.65945
▁دھات	-9.66016
ائ	-9.66124
▁مارک	-9.66185
▁ہوٹل	-9.66186
▁سمت	-9.66207
▁60	-9.66335
رون	-9.66365
▁چل	-9.66366
▁نسبتا	-9.66526
سر	-9.66593
▁بح	-9.66636
R	-9.66802
لن	-9.66842
▁یسوع	-9.66876
بینہ	-9.66916
▁نائٹ	-9.66989
v	-9.67013
▁آرسنل	-9.67247
▁آٹھو	-9.67248
▁تکنیکی	-9.67397
▁ریلیز	-9.67407
▁تخمینہ	-9.67411
▁بو	-9.67489
▁اعزاز	-9.67618
▁حدود	-9.67635
▁ایشیائی	-9.6764
▁شکاگو	-9.67991
▁پذیر	-9.67991
▁شراب	-9.67992
▁وادی	-9.67997
▁امیدوار	-9.67998
▁مخالفت	-9.68147
▁وہاں	-9.68217
H	-9.68299
▁خواہش	-9.68366
▁رچمنڈ	-9.68366
▁دوسر	-9.68414
▁حال	-9.68417
▁انچ	-9.6843
▁B	-9.68438
▁عقید	-9.68457
ta	-9.68512
▁واقعہ	-9.68559
▁یاد	-9.6862
▁ریکارڈز	-9.6865
▁درست	-9.68742
▁سست	-9.68759
▁ڈالا	-9.68797
▁میڈیک	-9.68805
نیگر	-9.68826
▁ممبران	-9.6886
وار	-9.68883
▁مشکل	-9.68989
▁اسلام	-9.6903
پس	-9.69091
▁ماخوذ	-9.69119
▁سائنسدان	-9.69123
▁پٹ	-9.69133
▁عکاسی	-9.69194
▁پیٹر	-9.69377
▁لیبیا	-9.69467
خر	-9.69476
▁حیدرآباد	-9.69498
▁مورخ	-9.69512
▁برما	-9.69569
▁ماسٹر	-9.69614
حتمی	-9.69878
▁پولش	-9.69931
▁جاسکے۔	-9.70002
▁یونیورسٹیوں	-9.70173
▁موسیقار	-9.7026
▁فاتح	-9.7026
▁چلا	-9.70268
▁آئرش	-9.70279
▁برابر	-9.70646
um	-9.70696
▁لبرل	-9.70709
▁آل	-9.70872
▁جیتا	-9.70964
▁زبانیں	-9.71015
ā	-9.71027
▁احاطہ	-9.71152
▁گنی	-9.71279
▁ادویات	-9.71414
▁کارکن	-9.71509
▁سک	-9.71541
▁بولت	-9.71626
▁شعبے	-9.71668
جا	-9.71763
▁مخفف	-9.71801
▁موازنہ	-9.71801
▁قرآن	-9.71801
▁تخت	-9.71801
▁حیاتیاتی	-9.71847
▁بلیو	-9.71884
▁برن	-9.71895
▁H	-9.71988
st	-9.71998
پور	-9.72133
▁خلا	-9.72165
▁پروجیکٹ	-9.72192
▁1940	-9.72214
گراف	-9.72246
17	-9.72397
▁خراب	-9.72402
▁کمپنیوں	-9.7253
▁بنات	-9.72666
▁آگ	-9.72691
▁ہزار	-9.7272
▁گھنٹے	-9.72788
▁تیسر	-9.72819
▁فائنل	-9.72927
▁80	-9.73026
▁درمیانی	-9.73224
▁چھوٹ	-9.73275
-19	-9.73286
جر	-9.73319
▁معاہدوں	-9.73367
▁کنونشن	-9.73367
▁قبائل	-9.73463
18	-9.73507
▁جھیل	-9.73762
▁غ	-9.73767
▁محمد	-9.73769
اخذ	-9.7379
لیٹ	-9.73947
ڈل	-9.73999
▁ایسی	-9.74003
▁یورو	-9.74106
▁ہسپتال	-9.74159
▁چنگ	-9.74219
▁ضم	-9.74242
▁آرٹسٹ	-9.74318
.8	-9.74321
▁لیبر	-9.74391
▁محسوس	-9.74557
▁بحث	-9.74559
▁طرز	-9.74562
.9	-9.74638
▁ایجنسی	-9.74717
ٹرو	-9.74854
شیاء	-9.74936
▁ثبوت	-9.74957
▁پھول	-9.74957
لین	-9.75004
▁بردار	-9.75005
▁پہاڑوں	-9.75161
▁آفس	-9.75248
▁اکیڈمی	-9.75359
▁تقریر	-9.75359
▁سنسکرت	-9.75387
▁کھیلا	-9.75396
▁کش	-9.75512
▁مناسب	-9.75762
▁ہیلینا	-9.75784
▁زمینی	-9.75795
▁واٹر	-9.75863
▁چلانے	-9.75901
▁سوچ	-9.75958
▁27	-9.76036
▁ممکن	-9.76096
▁مسلم	-9.76135
▁استعف	-9.76167
▁جغرافیا	-9.76167
▁پروڈکشن	-9.76168
ولا	-9.76208
▁ایڈورڈ	-9.76304
▁بج	-9.76315
▁جنگل	-9.76322
li	-9.76325
ic	-9.76379
te	-9.76428
ائے	-9.76431
▁یقینی	-9.765
37	-9.76554
▁خودمختار	-9.76573
▁ہیڈکوارٹر	-9.76573
▁فاصلے	-9.76574
▁گی۔	-9.76639
اف	-9.76641
لیس	-9.76754
▁مون	-9.76889
▁مداخلت	-9.76982
▁خیالی	-9.76985
ولوجی	-9.76993
اور	-9.77017
▁سزا	-9.77125
▁فریم	-9.77211
ٹل	-9.77212
▁ہوگا	-9.7733
▁جانچ	-9.77785
▁زرعی	-9.77803
▁زراعت	-9.77804
▁سلوک	-9.77896
▁90	-9.77978
▁گول	-9.78097
ٹیل	-9.78154
تشدد	-9.78216
▁جوہری	-9.78231
▁ہل	-9.78262
ود	-9.78342
▁ٹیکنالوجی	-9.78358
▁عیسائیت	-9.78434
U	-9.78466
10	-9.78525
▁صحرا	-9.78631
▁مضامین	-9.78631
▁منافع	-9.78631
▁شوارز	-9.78632
it	-9.78663
▁رویے	-9.78717
▁تناسب	-9.78805
▁خریدا	-9.78862
تر	-9.78884
▁لباس	-9.79048
▁مشور	-9.79048
▁دکھایا	-9.79055
▁سیاحت	-9.7907
▁ٹرانس	-9.79081
شین	-9.79188
▁پرندے	-9.79222
▁لاس	-9.79267
ئ	-9.79305
-1	-9.79453
▁بائبل	-9.79479
▁1991	-9.7948
ریٹ	-9.79519
پل	-9.79653
ایک	-9.7979
▁ذخیرہ	-9.79886
▁سیکیورٹی	-9.79886
▁پنک	-9.7993
▁اسٹار	-9.80051
▁مٹی	-9.80113
داف	-9.80118
▁تقریب	-9.80201
▁لنک	-9.80295
▁وزارت	-9.80309
▁کرلیا	-9.80315
▁ٹاور	-9.80479
▁صومالیہ	-9.80588
دو	-9.80599
▁ابتدا	-9.807
▁مونٹی	-9.80725
▁گرا	-9.80748
▁1930	-9.80757
-2	-9.80796
سک	-9.80858
▁فلپ	-9.80893
--	-9.80965
▁مستق	-9.8098
▁بشریات	-9.81158
▁لقب	-9.81165
▁ہوئیں	-9.81273
▁ارکان	-9.81587
▁ہڈی	-9.81689
▁وائی	-9.81752
▁خطرہ	-9.81821
فیا	-9.81885
▁سنبھال	-9.81894
▁سلاو	-9.81934
▁صف	-9.81966
▁ور	-9.81972
انت	-9.82
▁مساوی	-9.82017
64	-9.82136
یری	-9.82303
▁تبتی	-9.82353
▁بحال	-9.82368
▁وو	-9.82493
▁سروے	-9.82495
▁جینوم	-9.82496
▁ہوگیا	-9.82556
▁سوئس	-9.82639
▁لکھے	-9.82644
اق	-9.82675
▁انڈ	-9.82848
▁متحرک	-9.82878
▁نمون	-9.83069
▁گریٹ	-9.83091
▁D	-9.83099
▁ڈے	-9.83149
▁رہا۔	-9.83162
کار	-9.83172
▁تحقیقات	-9.8322
▁وجوہات	-9.83313
▁U	-9.83386
▁بہن	-9.83456
▁طبق	-9.83462
ڈس	-9.83547
▁دیکھی	-9.83602
▁آرٹس	-9.83621
▁تحلیل	-9.8375
▁سپیکٹر	-9.83751
▁پرواز	-9.83766
اش	-9.8378
▁سونے	-9.83852
مام	-9.83952
▁جوڑت	-9.8396
▁200	-9.84014
الپس	-9.84031
59	-9.84186
▁آرکائیو	-9.84188
▁اسپیلبرگ	-9.84188
▁مختار	-9.84188
▁تفریح	-9.84189
▁رچرڈ	-9.84191
▁مصروف	-9.84217
▁فر	-9.84259
آ	-9.84304
▁شہزادہ	-9.84358
os	-9.84359
▁فورسز	-9.84423
▁ہیم	-9.84503
▁ٹرین	-9.84622
▁ریزرو	-9.84629
▁باکس	-9.84729
▁گیل	-9.85056
▁ہفتہ	-9.85069
▁عورت	-9.85071
▁منصوبوں	-9.85071
▁یادگار	-9.85071
▁کیلنڈر	-9.85072
▁1997	-9.85082
60	-9.85086
▁وولٹی	-9.85216
▁تعمیرات	-9.85233
بن	-9.85241
یر	-9.85266
▁سم	-9.85329
▁امیر	-9.8544
یکس	-9.85512
▁تشریح	-9.85516
▁حرکت	-9.85516
▁خانقاہ	-9.85516
25	-9.85658
▁تحریر	-9.8572
▁ایبی	-9.85777
اتی	-9.85842
▁پڑوس	-9.85895
▁انٹارکٹیک	-9.85962
▁جرائم	-9.85962
▁اٹھایا	-9.85962
▁وسائل	-9.85965
▁بھال	-9.85967
▁والدین	-9.86141
as	-9.86143
▁لفٹ	-9.86289
▁مالیات	-9.86324
▁70	-9.86328
▁چلات	-9.86331
مان	-9.8635
▁رابط	-9.86392
▁مہارت	-9.86412
▁لیزر	-9.86417
▁جارہ	-9.8642
▁نوآبادیاتی	-9.86447
33	-9.86529
▁واپسی	-9.8655
▁خون	-9.86561
▁ریپبلکن	-9.86707
▁ترکی	-9.86859
▁پروڈیوسر	-9.86861
▁خالص	-9.86861
▁ایڈیشن	-9.86893
▁تیاری	-9.8692
ئین	-9.86924
▁مصنفین	-9.86979
V	-9.87067
▁آتا	-9.87122
B	-9.87265
▁ممتاز	-9.87313
▁گلوکار	-9.87315
▁کہتے	-9.87494
▁اپیل	-9.87559
▁روٹ	-9.87586
ٹیک	-9.87633
پٹ	-9.87702
▁والنسیا	-9.87768
▁پناہ	-9.87771
▁آکس	-9.87818
ma	-9.8783
▁انعام	-9.87877
ائل	-9.8803
▁مصنوع	-9.88099
▁ایوارڈز	-9.88113
▁500	-9.88193
▁بندوق	-9.88225
95	-9.88253
▁پھیلاؤ	-9.88261
▁کشی	-9.88306
▁زمان	-9.88346
na	-9.88506
▁لوک	-9.88578
▁وین	-9.88685
▁ایٹ	-9.88692
▁برق	-9.88715
▁قبیل	-9.88746
▁رائٹ	-9.88762
مد	-9.88822
▁شی	-9.88828
▁آہنگی	-9.88944
▁ہزاروں	-9.88981
▁مطالع	-9.88992
▁تصورات	-9.8902
اہد	-9.89021
▁لیون	-9.89077
▁بائیوٹک	-9.89112
▁متحد	-9.8913
ni	-9.89135
▁اپولو	-9.89136
▁عقائد	-9.89144
▁کمر	-9.89208
▁رومی	-9.89214
▁فل	-9.89222
میائی	-9.89279
▁(2	-9.89319
▁رائے	-9.89339
وث	-9.89395
▁پلانٹ	-9.89402
▁گارڈ	-9.89429
افٹ	-9.89447
▁نوآبادیات	-9.89574
▁پہلو	-9.89592
▁کیتھیڈرل	-9.89607
▁مساوات	-9.89607
▁شیئر	-9.89643
el	-9.89671
ابت	-9.89699
سکی	-9.89741
▁نیومن	-9.89755
▁ڈیوڈ	-9.8988
99	-9.89899
▁ٹن	-9.89955
قابو	-9.90075
▁امی	-9.9009
▁ہانگ	-9.90163
انگ	-9.90239
▁31	-9.90254
▁میٹرو	-9.90309
ha	-9.90428
اثر	-9.90536
▁کثرت	-9.90539
▁خانے	-9.9055
▁بادشاہت	-9.90605
▁انسانیت	-9.90627
▁ہندو	-9.90659
▁لیڈ	-9.90661
▁R	-9.90758
▁اسٹون	-9.90855
73	-9.90868
80	-9.90988
▁وصول	-9.91009
▁پودے	-9.9101
▁زوال	-9.91019
▁افسران	-9.91031
▁چارلسٹن	-9.91045
▁1920	-9.91049
▁آسٹریلیائی	-9.91083
یئر	-9.91159
▁اتحادی	-9.91296
▁مضافات	-9.91481
▁منسوخ	-9.91481
▁پاؤنڈ	-9.91481
▁خفی	-9.91484
وو	-9.91496
▁1999	-9.91501
▁معرو	-9.91514
▁پرانی	-9.91551
▁مشق	-9.91616
اج	-9.91654
▁برمودا	-9.91955
▁نظم	-9.91955
▁اریٹیریا	-9.91955
▁1998	-9.91972
▁بلڈنگ	-9.92002
▁ویسٹرن	-9.92004
فطرت	-9.9207
▁ناکامی	-9.92086
▁چی	-9.92163
48	-9.92218
لس	-9.92226
انداز	-9.92251
▁تعینات	-9.92325
▁چینل	-9.92378
▁گاڑی	-9.92382
.7	-9.92463
▁ٹرمینل	-9.92529
▁دیہی	-9.92533
▁برادری	-9.92608
بول	-9.92645
▁نکال	-9.92802
▁کھلاڑی	-9.92831
▁ہفت	-9.92836
▁ادبی	-9.92846
▁W	-9.92913
▁سرکٹ	-9.9297
▁انجینئرنگ	-9.92998
▁عربی	-9.93015
▁ماس	-9.93081
▁ث	-9.93091
▁بدعنوانی	-9.93098
▁کینن	-9.93139
▁ساتھ۔	-9.93141
لمبی	-9.93177
▁لگ	-9.932
وپ	-9.93284
.2	-9.93351
1,	-9.93361
▁کھڑ	-9.93379
▁بازی	-9.93401
▁تجدید	-9.93402
▁گن	-9.93446
لنگ	-9.93515
▁پرستی	-9.93533
▁مثالیں	-9.93585
▁ایوان	-9.93695
se	-9.93732
▁پیٹ	-9.93752
▁گریڈ	-9.93756
▁تہ	-9.93762
▁کیں۔	-9.9382
▁اسکوائر	-9.93873
▁تہذیب	-9.93873
▁1989	-9.93886
ti	-9.93891
وٹیوب	-9.9391
▁فنکار	-9.93919
un	-9.93948
▁کھلاڑیوں	-9.93953
▁بانڈ	-9.93977
▁مندر	-9.94058
▁راستہ	-9.94182
▁لیس	-9.94246
70	-9.94265
▁ٹریف	-9.94274
▁پروفیسر	-9.94359
▁عبور	-9.94359
▁رسم	-9.94366
▁ناول	-9.94376
▁بش	-9.94404
▁ڈرائیو	-9.94707
▁V	-9.94776
▁تسلسل	-9.94846
▁نرم	-9.9486
▁منفی	-9.94897
فا	-9.94914
▁کان	-9.95073
شپ	-9.9508
▁امپیریل	-9.95337
▁شمولیت	-9.95337
▁روح	-9.95362
مون	-9.95742
▁اختیارات	-9.95781
ing	-9.95792
▁اجلاس	-9.95829
▁کثافت	-9.95829
▁اعتماد	-9.95832
ونگ	-9.96058
▁پوائنٹ	-9.96079
▁بورو	-9.96284
▁ناقابل	-9.96324
▁بستی	-9.96369
▁غلطی	-9.96369
ڈون	-9.96413
▁لگت	-9.96567
▁ہاتھ	-9.96782
▁ماہی	-9.96813
▁ساخت	-9.96822
▁باہمی	-9.96822
▁پرائمری	-9.96841
▁بہار	-9.96845
▁O	-9.96858
▁صورت	-9.96872
▁(18	-9.96887
▁سہولت	-9.96901
▁برائ	-9.96905
▁لوڈ	-9.96968
▁گرمی	-9.97051
86	-9.97107
▁کیبل	-9.97299
▁تابکاری	-9.97322
▁کریڈٹ	-9.97322
▁پوپر	-9.97329
▁پیل	-9.97389
55	-9.97677
▁ڈسٹرکٹ	-9.97824
▁چیلنج	-9.97824
▁فاؤنڈیشن	-9.97828
ائٹ	-9.97961
زو	-9.97997
▁انگریزوں	-9.97998
92	-9.9803
▁سرد	-9.98043
▁پینٹ	-9.98075
▁ریاضی	-9.98195
▁دینا	-9.98256
36	-9.98271
▁بھائی	-9.98304
▁الیگزینڈر	-9.98329
G	-9.98356
▁دشمن	-9.98379
▁وزن	-9.9845
▁آمد	-9.9854
▁پروشین	-9.9859
il	-9.98708
▁انقلابی	-9.98762
▁ٹیٹو	-9.98805
▁علیحد	-9.98817
فون	-9.98821
▁روایات	-9.98837
▁کیلیفورنیا	-9.98837
▁گوتھک	-9.98837
▁مفت	-9.98839
34	-9.9884
▁کنارے	-9.9884
▁نوٹری	-9.99073
▁مارا	-9.99151
▁جاسکے	-9.99181
▁سونی	-9.99251
ٹنگ	-9.99298
▁ایونٹ	-9.99308
▁کھیلت	-9.99338
▁لائنوں	-9.99344
▁موقع	-9.99347
▁پریسبیٹیرین	-9.99347
▁ڈیفنس	-9.99347
▁کنسول	-9.99348
▁دیوتاؤں	-9.99358
▁سینیٹ	-9.99364
▁احساس	-9.99375
▁لیک	-9.99384
▁ٹریڈ	-9.99476
▁نوعیت	-9.9986
▁انض	-9.99893
▁رسمی	-9.99902
▁فارسی	-9.99921
▁ڈومین	-10.0007
15	-10.0017
▁de	-10.0032
▁برس	-10.0033
▁35	-10.005
▁سلاوی	-10.0057
▁جڑ	-10.0062
▁اکاؤنٹ	-10.0089
▁بوجھ	-10.0089
▁جائیداد	-10.0089
▁کارنیول	-10.0089
▁فلاڈیل	-10.0089
▁بلب	-10.0093
39	-10.0095
یٹر	-10.0098
▁جوزف	-10.0101
▁پہنچن	-10.011
▁اسٹاف	-10.0114
▁اقلیتی	-10.0124
▁جیک	-10.0128
▁کارل	-10.0131
▁ساتو	-10.0137
▁تجربے	-10.0141
▁تفویض	-10.0141
▁وارسا	-10.0143
ائن	-10.0148
▁انفیک	-10.0154
▁پانے	-10.0156
56	-10.0157
▁انڈیا	-10.0158
▁سیکشن	-10.0159
▁29	-10.0174
▁چھٹی	-10.0175
68	-10.0181
▁پلیئر	-10.0181
42	-10.0183
▁جنگوں	-10.0186
▁پیسیفک	-10.0194
▁نورفو	-10.0194
▁قوت	-10.0194
▁ہنگری	-10.0194
▁بیسو	-10.0198
▁مسئل	-10.0199
▁کانگو	-10.0208
▁ریس	-10.0214
از	-10.0216
▁ایرانی	-10.0228
▁خورد	-10.024
▁سیکھن	-10.024
ہم	-10.0241
▁45	-10.0245
مخلوط	-10.0246
▁لکھنے	-10.0248
▁تباہی	-10.0261
برا	-10.0266
▁الٹ	-10.0267
▁فورٹ	-10.0281
پول	-10.0282
▁سیاست	-10.0299
▁کیمپ	-10.03
لر	-10.0303
▁بازنطینی	-10.0304
75	-10.0306
▁مطالعات	-10.0315
▁پرنٹ	-10.0322
▁شہزادی	-10.0341
▁پا	-10.0346
▁فلموں	-10.0346
▁خاتمہ	-10.0353
▁اوپیرا	-10.0353
▁لازمی	-10.0353
▁کپڑے	-10.0353
▁آپریشنز	-10.0355
▁پادری	-10.0355
▁قبض	-10.0364
▁مارول	-10.0366
▁اتحادیوں	-10.0366
▁وران	-10.0367
▁الہیات	-10.037
ٹرا	-10.037
▁شکلیں	-10.0372
سادہ	-10.0374
ٹز	-10.0384
ca	-10.0386
▁بیونس	-10.0393
▁II	-10.0399
▁ورجینیا	-10.0406
▁قدم	-10.0406
▁قیدی	-10.042
▁ڈرام	-10.0421
لڈ	-10.045
▁اجتماع	-10.046
▁رضامندی	-10.046
▁VI	-10.046
▁خرچ	-10.046
▁رہنماؤں	-10.0464
▁کینیڈین	-10.0466
▁گولی	-10.0469
▁اوور	-10.0469
▁مقا	-10.0478
.6	-10.0492
▁اونچی	-10.0498
▁بالترتیب	-10.0503
▁کلی	-10.0511
▁ہدف	-10.0514
▁ریسرچ	-10.0514
روس	-10.0515
▁دیں	-10.0518
مقابلہ	-10.0519
▁ٹیکساس	-10.0521
▁مطابقت	-10.0522
ائد	-10.0524
▁سینڈ	-10.0532
▁طاقتور	-10.0542
اٹ	-10.0543
▁ہپ	-10.0547
پریشن	-10.0564
▁حساب	-10.0568
▁سیکرٹری	-10.0568
▁روزان	-10.0577
▁گرفتار	-10.0581
▁انتظامی	-10.0589
▁میری	-10.0593
ساو	-10.0601
▁گھ	-10.0606
▁انفرا	-10.0623
▁زائر	-10.0623
▁امید	-10.0627
▁کاربن	-10.0628
▁ہاپ	-10.0629
▁مسافروں	-10.0644
▁معیارات	-10.0657
▁اصطلاحات	-10.0658
.4	-10.0659
▁پرنس	-10.0666
▁ماؤنٹ	-10.0669
▁تقرری	-10.0678
▁درآمد	-10.0678
▁معمار	-10.0678
▁پروٹین	-10.0679
مور	-10.0684
▁فیشن	-10.07
▁اداکار	-10.0702
ارا	-10.0702
▁تنوع	-10.0703
رام	-10.0703
▁تحریری	-10.0708
▁ریٹ	-10.0708
▁لئے۔	-10.071
▁صورتحال	-10.0733
▁پاکستان	-10.0733
ng	-10.074
▁شخصیت	-10.0741
انس	-10.0745
▁است	-10.0745
46	-10.0746
▁بیجنگ	-10.0748
▁ایو	-10.075
فیئر	-10.0756
▁تاز	-10.0759
▁کٹ	-10.0762
وواہ	-10.0787
▁ردعمل	-10.0789
▁صحیح	-10.0789
▁معدوم	-10.0789
ائزیشن	-10.079
▁نائب	-10.0792
▁ڈیوک	-10.0794
▁تنازع	-10.0797
▁مقبولیت	-10.0797
▁جارجیا	-10.0797
▁طبی	-10.0819
یٹس	-10.0827
nd	-10.083
▁طیار	-10.0833
یکل	-10.084
▁ذخائر	-10.0844
▁وراثت	-10.0844
▁محبت	-10.0846
▁شان	-10.0847
▁جم	-10.0848
98	-10.0849
▁حوال	-10.0856
▁دستاویزات	-10.0865
▁شری	-10.0867
▁بہتری	-10.0867
▁مس	-10.0871
ینا	-10.0879
▁نشست	-10.0884
▁بادشاہوں	-10.0892
▁ٹری	-10.0892
▁عرفی	-10.0901
▁نصوص	-10.0901
▁مجرم	-10.0901
▁براؤن	-10.0901
▁نسلوں	-10.0932
▁عملے	-10.0937
▁لسانی	-10.0945
▁سوال	-10.0952
▁ٹرانسمیشن	-10.0957
▁اسرائیلی	-10.0959
▁ایشیا	-10.0959
▁چلایا	-10.0966
▁ڈین	-10.0968
▁ام	-10.097
شم	-10.097
▁کورک	-10.0975
▁بمباری	-10.0979
▁لین	-10.098
▁بیورو	-10.0986
▁بیٹی	-10.1001
▁امتیاز	-10.1014
▁انڈسٹری	-10.1014
▁ہفتوں	-10.1023
▁آبائی	-10.1025
▁فورا	-10.1026
▁ویلز	-10.1033
▁بیٹا	-10.1037
si	-10.1044
▁مائیکروس	-10.1047
▁ایریا	-10.105
▁باشندے	-10.1055
▁رہ	-10.1057
▁معلوم	-10.1058
▁کلبوں	-10.1065
▁رکھے	-10.1069
کھٹمنڈو	-10.1071
▁اسفالٹ	-10.1071
▁عبادت	-10.1071
▁تووالو	-10.1071
▁ٹائٹل	-10.1071
یلا	-10.1075
▁اسکالرز	-10.1093
▁عوامل	-10.11
▁کارڈینل	-10.1101
▁پیس	-10.1104
▁میٹا	-10.1109
ایس	-10.1119
▁اتھارٹی	-10.1129
▁مراکز	-10.1129
▁سوچا	-10.1129
▁راہب	-10.113
▁برلن	-10.1136
81	-10.1152
▁باقیات	-10.1165
▁ہیٹن	-10.1165
این	-10.1167
▁فرنٹ	-10.1171
▁غلامی	-10.1173
▁اع	-10.1178
j	-10.1186
▁ادائیگی	-10.1186
▁ویتنام	-10.1186
▁ہوچک	-10.1187
الا	-10.1188
▁رن	-10.1189
▁تغیرات	-10.119
▁گنا	-10.1191
▁ڈالن	-10.1193
▁آٹو	-10.1197
▁شکاریوں	-10.1201
ونڈ	-10.1204
نور	-10.1205
▁پرفارم	-10.1211
▁ہیرو	-10.1221
▁تجرباتی	-10.1226
لٹ	-10.1234
▁بنے	-10.1244
▁یوکرائن	-10.1244
▁نینٹینڈو	-10.1245
▁فرینک	-10.1262
▁تجربات	-10.1263
▁طیارے	-10.1265
▁ڈبل	-10.127
▁(3	-10.1273
49	-10.1275
ڑھ	-10.1277
▁پھل	-10.1303
▁خاتون	-10.1303
▁راؤنڈ	-10.1303
▁پیروکار	-10.1304
▁کیشنز	-10.1307
▁آدھ	-10.132
79	-10.1322
ریس	-10.1324
▁چوتھی	-10.134
▁مادہ	-10.1345
▁L	-10.1351
پلا	-10.1361
▁ماضی	-10.1362
▁متنازع	-10.1362
▁منشیات	-10.1362
▁یوگوسلاویہ	-10.1362
▁1945	-10.1364
▁منگول	-10.1377
▁ڈاک	-10.1378
53	-10.1386
id	-10.1391
سٹی	-10.1398
▁چوتھ	-10.14
ئے	-10.1401
▁کھول	-10.1406
▁ٹیمیں	-10.1406
ائز	-10.1415
▁سیکنڈ	-10.1416
▁فصل	-10.1421
▁بخش	-10.1421
,000	-10.1425
ابط	-10.1425
▁منٹ	-10.1429
▁مقناطیسی	-10.1431
شر	-10.1438
سٹن	-10.1439
▁پڑھن	-10.1463
▁نامی	-10.1475
ə	-10.148
▁تصاویر	-10.148
▁مضمون	-10.148
▁1988	-10.1482
▁فرد	-10.1488
et	-10.1489
▁بڑھایا	-10.1492
▁زد	-10.1502
▁چارج	-10.1522
▁ڈیک	-10.153
اری	-10.1535
پیک	-10.1536
...	-10.154
▁خدش	-10.154
▁ایورٹن	-10.154
▁اجداد	-10.154
▁میڈیسن	-10.1541
▁گوام	-10.1543
▁باس	-10.1543
▁سامعین	-10.1544
▁ایسڈ	-10.1549
85	-10.155
نیہ	-10.1555
13	-10.1556
▁حریف	-10.1556
▁نیم	-10.1561
▁کینس	-10.1577
▁میموری	-10.1583
51	-10.1586
▁رکھا۔	-10.1594
▁ایمان	-10.1595
ter	-10.1596
▁منفرد	-10.1601
▁ہلک	-10.1607
▁پیانو	-10.1614
▁لائیو	-10.1616
سٹین	-10.1618
▁لاک	-10.162
▁پیرا	-10.1639
▁بیماریوں	-10.1654
W	-10.1661
▁نمک	-10.1661
▁1979	-10.1663
▁1939	-10.1664
▁پڑوسی	-10.167
▁بوٹ	-10.1673
بندی	-10.1675
▁ہوگیا۔	-10.1685
برٹ	-10.1688
رات	-10.17
19	-10.1705
91	-10.1706
سین	-10.1707
اعت	-10.1717
▁بپٹسٹ	-10.1722
▁جدوجہد	-10.1722
▁شرائط	-10.1722
▁کائنات	-10.1723
▁معامل	-10.1723
▁ڈانس	-10.1725
ضو	-10.1725
▁خریداری	-10.173
میٹ	-10.1731
▁اراد	-10.1732
43	-10.1746
▁ہائیڈرو	-10.1747
▁آہنگ	-10.1749
ینٹ	-10.1763
▁تشخیص	-10.1784
▁گوشت	-10.1785
▁1994	-10.1785
▁ساؤنڈ	-10.1786
67	-10.1788
54	-10.18
52	-10.181
ڈم	-10.1813
▁(200	-10.1815
شا	-10.1819
▁ہیل	-10.1825
▁اصلاح	-10.1832
رومیوں	-10.1833
▁عیسائیوں	-10.1845
▁طلب	-10.1845
▁فلپائن	-10.1848
▁2016	-10.1848
▁اہتمام	-10.185
▁خلیج	-10.1856
▁گیٹ	-10.1866
▁خلی	-10.1867
تقریبا	-10.1868
▁اوک	-10.1871
کون	-10.1884
فل	-10.1884
▁بنانا	-10.1889
ثر	-10.1903
▁سیاح	-10.1904
نیس	-10.1907
▁انکشاف	-10.1907
▁جھنڈ	-10.1907
▁صوبہ	-10.1907
▁مدرس	-10.1908
▁سفارش	-10.1908
▁لائف	-10.1908
96	-10.1916
اط	-10.1926
زن	-10.1932
▁خزا	-10.1942
to	-10.1945
یات	-10.1946
▁جانشین	-10.1947
▁پرو	-10.1947
▁اسٹریٹج	-10.195
26	-10.1959
▁تار	-10.1959
di	-10.1965
▁گریجویٹ	-10.1967
▁مول	-10.1967
▁ریستوراں	-10.197
▁قسطنط	-10.197
▁جانبدار	-10.197
▁1941	-10.1972
vi	-10.1993
▁اشکنازی	-10.1994
وسیا	-10.2
▁طب	-10.2002
▁بور	-10.202
ph	-10.2031
▁ڈیوائس	-10.2033
▁اطلاق	-10.2034
▁پرفارمنس	-10.2035
▁فاکس	-10.2035
▁1995	-10.2035
▁بیرون	-10.2038
▁گیلری	-10.204
▁پلان	-10.2045
▁ویک	-10.2057
کنز	-10.2057
▁ماں	-10.206
▁تھرم	-10.2065
▁ہوگی	-10.2066
رم	-10.2071
ٹیو	-10.2079
▁جیانگ	-10.2082
▁برج	-10.2086
▁BYU	-10.2096
▁اشتہار	-10.2096
▁طبیعی	-10.2096
ed	-10.2097
▁کنی	-10.2098
▁ازم	-10.2098
▁1949	-10.2098
▁اولاد	-10.2099
45	-10.2101
▁رنگین	-10.2105
▁مائیکل	-10.2107
▁جذباتی	-10.2113
خالی	-10.2113
▁پینٹنگ	-10.2115
پورٹ	-10.2116
▁+	-10.2146
35	-10.2149
▁فرش	-10.2157
▁بزنس	-10.216
▁پھیلا	-10.2172
41	-10.2203
▁باب	-10.2208
▁فلسف	-10.2209
21	-10.221
69	-10.2214
سیپ	-10.2215
▁دیوتا	-10.2223
▁لیبارٹری	-10.2224
▁کنفیڈریشن	-10.2224
▁اینگلو	-10.2224
▁ٹھنڈ	-10.2226
no	-10.2229
▁مو	-10.2229
90	-10.223
▁منسٹر	-10.2231
▁الکا	-10.2234
▁یعنی	-10.2236
▁بائ	-10.2256
▁روان	-10.2256
▁a	-10.2257
▁360	-10.226
▁آسانی	-10.227
me	-10.2271
66	-10.2273
▁نسب	-10.2275
▁بلاک	-10.2275
▁جیفر	-10.2281
▁بتایا	-10.2288
▁میزائل	-10.2289
▁سماعت	-10.2289
▁سوانح	-10.2289
▁1987	-10.229
▁بہ	-10.2291
▁ایجنٹ	-10.2291
▁میس	-10.2295
▁سانٹا	-10.2298
83	-10.2304
▁مینوفیکچر	-10.2304
▁(1	-10.231
▁شیر	-10.2311
▁داخلہ	-10.2318
▁گروہ	-10.2334
J	-10.2341
▁رکھ	-10.2345
▁ٹکڑے	-10.2352
▁مواقع	-10.2353
▁سوازی	-10.2353
▁چیئرمین	-10.2354
▁1974	-10.2355
▁لوہ	-10.2359
pa	-10.2359
▁پابند	-10.2388
▁بیڑے	-10.2391
▁بائیو	-10.24
27	-10.2402
77	-10.2402
▁گور	-10.2404
▁الیکٹرانک	-10.2406
ci	-10.2413
▁احکامات	-10.2419
▁1996	-10.2421
▁ابھی	-10.2423
▁جمہوریت	-10.2427
▁ٹوٹ	-10.243
▁ٹرسٹ	-10.2437
▁چھٹ	-10.2443
12	-10.2448
▁جائے۔	-10.2459
▁زمر	-10.2465
▁آرکسٹرا	-10.2484
▁ترغیب	-10.2484
▁تھوڑ	-10.2484
▁انٹیلی	-10.2485
▁جرم	-10.249
▁دب	-10.2497
▁اتنا	-10.2501
▁گان	-10.2506
▁اقلیت	-10.2506
▁کارڈ	-10.251
آئی	-10.2527
میر	-10.2527
▁کھلا	-10.2529
▁کوانٹ	-10.2534
نصب	-10.2539
▁رقص	-10.2551
▁میوزیک	-10.2551
▁تقریباً	-10.2552
▁اسٹاپ	-10.2552
▁1969	-10.2553
▁کسانوں	-10.2557
یوس	-10.2563
▁ٹکڑ	-10.2566
▁پینل	-10.257
▁ماد	-10.2571
ol	-10.2576
▁خرابی	-10.2581
800	-10.2587
87	-10.2588
ولی	-10.2607
▁جلا	-10.261
نیٹ	-10.2611
24	-10.2613
▁موصول	-10.2617
▁پروشیا	-10.2618
▁آئن	-10.2621
▁فال	-10.2623
▁باڈی	-10.2627
47	-10.2627
▁سوئ	-10.2632
▁ملٹی	-10.2649
▁توڑ	-10.2659
تنوع	-10.2664
▁برآمد	-10.2666
▁صارف	-10.2676
▁گھڑی	-10.268
é	-10.2684
▁رضاکار	-10.2684
▁عالمگیر	-10.2684
▁محرک	-10.2684
▁کنندہ	-10.2684
▁جامع	-10.2685
▁اڈوں	-10.2685
16	-10.2686
▁سوشلسٹ	-10.2689
▁فیڈ	-10.2695
▁گیمز	-10.2696
▁لانگ	-10.2703
▁تقریبات	-10.2708
▁چارٹ	-10.2711
مت	-10.2713
▁$	-10.2715
▁فلیٹ	-10.2718
▁ہو۔	-10.2722
▁مک	-10.2723
ثا	-10.2729
▁ایکڑ	-10.273
▁باغی	-10.2737
ریج	-10.2739
▁آدمی	-10.2752
▁توثیق	-10.2752
▁نایاب	-10.2752
▁ڈاؤن	-10.2753
▁فلکیات	-10.2756
▁ابن	-10.2757
▁خان	-10.2769
▁سہ	-10.277
▁قربانی	-10.2778
▁کولمبی	-10.2787
کرافٹ	-10.2788
▁نیلے	-10.2794
ٹم	-10.2805
بری	-10.2806
ظہ	-10.2807
▁سڑکوں	-10.2814
میانمار	-10.282
▁بیکٹیریل	-10.282
▁اعتراض	-10.282
▁اسکرین	-10.2821
▁اضلاع	-10.2822
▁1992	-10.2823
کشن	-10.2829
بھ	-10.2829
▁کوریائی	-10.283
▁مع	-10.2851
ائیڈ	-10.2852
▁سور	-10.2861
▁قدر	-10.2871
▁غذائی	-10.288
▁سیار	-10.2882
▁دسو	-10.2884
▁تھلگ	-10.2889
▁سہول	-10.2889
▁1993	-10.289
مکینیکل	-10.289
▁جشن	-10.2891
ناظر	-10.2891
▁پہاڑ	-10.2895
▁نگار	-10.2899
یاتی	-10.2899
▁لگا	-10.2903
مار	-10.2906
▁افسان	-10.291
▁پک	-10.291
ہال	-10.2912
باما	-10.2915
co	-10.2924
▁بمبار	-10.2931
▁بیٹری	-10.2935
▁ہن	-10.2939
امی	-10.2939
شتر	-10.2949
▁فیڈریشن	-10.2958
▁محقق	-10.2958
▁سیکولر	-10.2958
▁اسٹاک	-10.2958
▁لیمپ	-10.2961
▁حکومتوں	-10.2962
▁جوڑنے	-10.2966
▁فرانسس	-10.2975
mi	-10.2976
▁ہیلی	-10.2983
am	-10.2985
▁پورٹو	-10.2991
▁پڑا۔	-10.3001
▁دوڑ	-10.3002
اخ	-10.3014
ران	-10.3017
ورڈ	-10.3021
چم	-10.3027
▁نوعمر	-10.3027
▁اسٹوریج	-10.3027
▁انڈیکس	-10.3029
▁1977	-10.3029
▁1948	-10.303
توقع	-10.3031
▁ریور	-10.3037
76	-10.3039
▁300	-10.3048
ڈیل	-10.305
ho	-10.3052
▁ڈسٹ	-10.3055
▁ہوگا۔	-10.3055
▁ریاستیں	-10.306
بھار	-10.3061
58	-10.3069
▁1000	-10.307
ce	-10.3071
▁ضروریات	-10.3072
ul	-10.3081
▁گال	-10.3084
▁اسٹورز	-10.3085
▁بناتی	-10.3086
▁75	-10.3093
▁خوبصورت	-10.3097
▁غریب	-10.3097
▁سالگرہ	-10.3097
▁اہ	-10.3098
▁اسمتھ	-10.3098
▁فرض	-10.3099
▁موڑ	-10.3099
▁1985	-10.3099
▁الیکٹرو	-10.3101
آر	-10.3109
ہل	-10.3116
▁شاعری	-10.3116
▁سیکسن	-10.3139
▁اسٹیل	-10.3141
▁سزائ	-10.3142
14	-10.3145
▁تھیم	-10.3156
▁مالیکیول	-10.3167
74	-10.3167
▁پروٹوکول	-10.3168
▁بہاؤ	-10.3169
▁1976	-10.3169
▁مڈ	-10.3171
01	-10.3177
▁لیو	-10.3182
▁بجے	-10.3185
▁پہنچے	-10.3187
71	-10.3194
▁اسپیس	-10.3201
▁عراق	-10.3213
▁چوتھا	-10.3213
▁150	-10.3227
گریٹر	-10.3233
▁اعتراف	-10.3238
▁صوبوں	-10.3238
▁ایندھن	-10.3238
▁The	-10.3239
▁حیر	-10.324
ائزڈ	-10.3248
▁پیپل	-10.3253
▁لڑک	-10.3254
▁زخمی	-10.3266
▁تال	-10.3269
▁اسکیم	-10.3273
▁اسکالر	-10.3282
▁خوش	-10.3285
▁منی	-10.329
▁لکھت	-10.3293
▁مارنے	-10.3299
مونٹ	-10.3306
▁سوشل	-10.3306
▁ضبط	-10.331
▁مریض	-10.331
▁اسپورٹس	-10.331
▁ڈومینیکن	-10.331
▁چیپل	-10.3311
▁پنجاب	-10.3312
▁ملازمین	-10.3315
▁(16	-10.3317
▁ایٹم	-10.3318
va	-10.332
▁مارٹن	-10.3324
29	-10.3325
ian	-10.3332
قاعدہ	-10.3337
▁گری	-10.3347
ریڈ	-10.3348
▁بیج	-10.3356
گین	-10.3357
▁لڑن	-10.3365
▁برطرف	-10.3382
▁اسکائی	-10.3383
▁پہلوان	-10.3388
▁باپ	-10.3405
نین	-10.3408
بس	-10.3409
▁سومری	-10.341
ھی	-10.3411
▁دوا	-10.3423
2)	-10.3424
11	-10.3425
▁دہائیوں	-10.3428
▁آرام	-10.3428
شو	-10.3432
▁اولمپکس	-10.3433
▁چا	-10.3449
▁میڈ	-10.3452
▁اشتراک	-10.3454
▁متوازی	-10.3454
▁مینجمنٹ	-10.3454
▁صاف	-10.3454
▁ہنگام	-10.3454
▁اسکرپٹ	-10.3455
▁1971	-10.3456
▁رابطہ	-10.3459
▁پس	-10.346
▁تاجروں	-10.3463
▁خام	-10.3467
▁ایڈیٹر	-10.3468
▁باسک	-10.3468
▁میٹ	-10.3471
▁اونچا	-10.3472
63	-10.3483
بین	-10.349
72	-10.349
57	-10.3494
ka	-10.3495
88	-10.3497
▁افسانو	-10.3505
لامتی	-10.3515
▁ڈائ	-10.3518
حسین	-10.3522
▁مدمقابل	-10.3527
▁زبردست	-10.3527
▁ڈھانچہ	-10.3527
▁تلفظ	-10.3528
▁باؤل	-10.3533
▁قدیمہ	-10.3537
میبیا	-10.3546
▁120	-10.355
فو	-10.3557
▁پاک	-10.3557
▁مونٹان	-10.3558
▁تبدیلیاں	-10.3558
▁پرجاتی	-10.3571
▁سرپرست	-10.3578
▁انجینئر	-10.3587
▁ایر	-10.3592
▁نقصانات	-10.36
▁تناؤ	-10.3601
▁ڈھک	-10.3601
▁روزگار	-10.3601
▁چاندی	-10.3603
▁سائیڈ	-10.3604
ذہ	-10.3612
▁پر۔	-10.3625
▁قومیت	-10.3627
▁کمپیوٹرز	-10.3629
K	-10.3647
▁رول	-10.3655
▁دف	-10.3655
نگٹن	-10.3657
▁پادریوں	-10.3671
ولین	-10.3673
▁نقش	-10.3675
▁پیغام	-10.3675
▁منایا	-10.3675
▁جائیں	-10.3675
▁تکمیل	-10.3675
▁اینجل	-10.3677
▁ایسٹونین	-10.3678
28	-10.368
جین	-10.3682
▁پریشانی	-10.3683
ٹوری	-10.3684
▁بنتا	-10.3686
▁تفصیلات	-10.3686
▁(5	-10.3695
ایم	-10.3706
در	-10.3706
▁ڈور	-10.371
▁ریلی	-10.3718
▁ریکو	-10.3734
▁£	-10.3735
▁پید	-10.3736
5،000	-10.3745
▁انتقال	-10.3749
▁قطب	-10.3749
▁اقدار	-10.375
▁یونیکو	-10.3751
تائیوان	-10.3756
▁سین	-10.3756
نگھم	-10.3758
ولر	-10.3767
▁ایلن	-10.3778
89	-10.378
ورکس	-10.3782
▁ارب	-10.3782
راد	-10.3786
▁جنگجو	-10.3787
▁(4	-10.3796
▁مسافر	-10.3796
▁شاعر	-10.3804
sa	-10.3806
رٹ	-10.3806
po	-10.3807
▁لائی	-10.3809
▁رگ	-10.3811
یگ	-10.3819
▁نقا	-10.382
▁دفاتر	-10.3824
▁ہنوور	-10.3825
▁تاخیر	-10.3825
▁سچائی	-10.3826
▁خوف	-10.3827
ینڈ	-10.3828
▁گریگوری	-10.3828
▁سلطان	-10.3829
بوط	-10.383
▁نامزدگی	-10.383
▁فرسٹ	-10.3831
▁نوبل	-10.3842
▁مضبوطی	-10.3842
▁نازی	-10.3845
▁بازو	-10.3846
▁جنگلات	-10.3851
▁ناک	-10.3856
Z	-10.3857
▁پرت	-10.3857
▁موڈ	-10.3859
شائر	-10.386
ذکر	-10.387
▁قید	-10.388
لیو	-10.389
▁اشنکٹ	-10.39
▁متضاد	-10.39
▁ویکیوم	-10.39
▁وعدہ	-10.39
▁ورث	-10.3901
▁مائکرو	-10.3904
ent	-10.3904
ورس	-10.3924
▁ٹام	-10.3929
بکس	-10.3932
یکا	-10.3938
▁ثان	-10.3942
فور	-10.3945
ck	-10.3952
پین	-10.3955
▁الہی	-10.3959
62	-10.3961
وچ	-10.397
▁ایتھلیٹک	-10.3977
▁بدنام	-10.3977
▁مکوڑ	-10.3977
▁اسٹائل	-10.3978
▁1944	-10.3978
▁مذم	-10.398
▁شد	-10.399
▁ماؤنٹین	-10.3991
▁سوار	-10.3995
▁جونیئر	-10.4
▁ٹھو	-10.4004
▁کامکاسٹ	-10.401
▁جوڑے	-10.4028
▁مونو	-10.4031
▁معمول	-10.4035
گوٹ	-10.4053
▁دھمکی	-10.4053
▁Ma	-10.4054
▁برتن	-10.4054
ایوسینا	-10.4054
▁ضمانت	-10.4055
▁رواج	-10.4055
▁پنکھ	-10.4055
سلی	-10.4067
▁X	-10.4072
دیکھیں	-10.4077
▁منزل	-10.4083
ٹرز	-10.4085
▁کاشت	-10.4085
▁کلو	-10.4086
▁مرکبات	-10.4088
▁پرستوں	-10.4095
▁شا	-10.4106
سٹک	-10.4112
▁الیکٹران	-10.4117
کاری	-10.4117
▁پیسہ	-10.4122
▁توپ	-10.4122
گریشن	-10.4123
قدام	-10.4127
▁آلودگی	-10.4131
▁بٹومین	-10.4131
▁طول	-10.4132
▁ہند	-10.4132
▁فریق	-10.4133
▁ساموا	-10.4134
▁بگ	-10.4134
▁دوچار	-10.4134
▁ہوگئیں	-10.4135
ینو	-10.4135
▁بدعت	-10.414
▁اتنی	-10.4143
▁بھاگ	-10.4147
سیس	-10.4155
▁65	-10.4159
وکس	-10.416
▁مجسمہ	-10.4174
▁سولو	-10.419
اصر	-10.4199
▁سینا	-10.42
▁کوچ	-10.4202
▁مطلوب	-10.4209
▁مفروض	-10.4209
▁یونائیٹڈ	-10.4209
▁معطل	-10.4209
▁وغیرہ	-10.4209
▁اموات	-10.4209
▁راغب	-10.4209
▁انگور	-10.421
پلیکس	-10.4211
▁1917	-10.4213
▁فیس	-10.4219
نسوب	-10.4222
▁متعد	-10.4223
▁کنٹری	-10.4223
زین	-10.424
▁اخبارات	-10.4243
▁دائ	-10.4246
man	-10.4252
▁برون	-10.4257
ریم	-10.4258
mo	-10.426
▁ایپ	-10.4263
▁گھران	-10.4267
ائٹس	-10.4271
▁انجن	-10.4272
ts	-10.4273
▁تفصیل	-10.4275
▁ٹول	-10.4275
▁افعال	-10.4288
▁جارح	-10.4288
▁گراؤنڈ	-10.4288
▁عمودی	-10.4288
▁مثالی	-10.429
▁آئلینڈ	-10.429
▁1964	-10.4291
▁اپنانے	-10.4292
▁نیپال	-10.4293
▁نہاد	-10.4294
▁شق	-10.4302
▁فلمیں	-10.4305
).	-10.4306
78	-10.4307
▁ہوگی۔	-10.4309
▁ٹائپ	-10.4313
کرات	-10.4322
نان	-10.4325
▁سیمی	-10.4347
▁400	-10.4353
▁بیوی	-10.4355
ویٹ	-10.4355
▁ریجن	-10.4357
سٹریٹ	-10.4358
tu	-10.436
▁پروٹو	-10.4366
ː	-10.4367
▁ایڈجسٹ	-10.4367
▁اکٹھ	-10.4367
▁مرتب	-10.4369
▁میجر	-10.4369
▁1972	-10.4369
▁پہلوؤں	-10.437
▁1900	-10.4378
▁سینٹی	-10.4384
▁فلور	-10.4404
▁گریز	-10.4405
▁فوڈ	-10.4411
فن	-10.4422
▁بوس	-10.4429
▁آرچ	-10.4431
▁32	-10.4432
آن	-10.4434
اپ	-10.4443
▁میساچوسٹس	-10.4447
▁کرسٹل	-10.4448
▁انجیل	-10.4449
▁آئس	-10.4451
▁غذائیت	-10.446
▁گولڈ	-10.4494
▁کرو	-10.4498
▁بیر	-10.4501
05	-10.4511
97	-10.4522
روی	-10.4522
▁آئل	-10.4526
▁1961	-10.4528
▁کھپت	-10.4528
▁مذاہب	-10.4528
▁پمپ	-10.4528
▁سکاٹ	-10.4529
▁1978	-10.453
▁میونسپلٹی	-10.453
▁1918	-10.4532
▁دمہ	-10.4538
▁بھرتی	-10.4544
▁مدار	-10.455
نویں	-10.4555
▁خلیات	-10.4559
پیاں	-10.4564
ٹیکل	-10.4568
▁الزامات	-10.4568
65	-10.4569
▁پیری	-10.4578
▁یہودیت	-10.4582
کوس	-10.4586
▁اخلاقی	-10.4597
▁سفارت	-10.4597
ve	-10.4605
ظاہر	-10.4606
▁انٹرٹینمنٹ	-10.4609
▁یکساں	-10.461
▁(20	-10.4611
▁1967	-10.4612
رڈ	-10.4616
23	-10.4617
▁ہاٹ	-10.4618
▁ڈا	-10.4618
یئس	-10.4619
▁نیل	-10.4626
▁ایسٹر	-10.4627
▁حراستی	-10.4631
▁جمہوری	-10.4632
▁ذہن	-10.4633
وسٹ	-10.4634
▁لڑکی	-10.4639
▁نہر	-10.4641
▁ٹیسٹنگ	-10.4647
رگو	-10.465
نٹس	-10.4654
▁ڈیٹ	-10.4658
▁ٹیک	-10.4661
▁چھت	-10.4675
▁صلیبی	-10.4688
موبائل	-10.4691
▁اوسطاً	-10.4691
▁ایکسپلورر	-10.4691
▁دستبردار	-10.4691
▁واقفیت	-10.4692
▁شکای	-10.4694
▁موس	-10.4697
▁ہاتھوں	-10.4698
▁ایوی	-10.4706
▁عقیدہ	-10.4714
▁ہلاکت	-10.472
قین	-10.4722
▁رکھی۔	-10.4723
ٰ	-10.4723
08	-10.4728
▁نکل	-10.474
▁جیو	-10.4742
ینز	-10.4743
▁ٹیکنالوجیز	-10.4745
▁(17	-10.4745
▁اداکاری	-10.4755
▁تھیوری	-10.4759
ge	-10.4766
▁عدالتی	-10.4769
▁آئر	-10.4773
▁پارلیمانی	-10.4774
قطع	-10.4774
▁دکان	-10.4774
▁مینیجر	-10.4774
▁سوائ	-10.4775
▁فرم	-10.4775
▁1984	-10.4776
▁آرتھر	-10.4778
رمو	-10.4781
▁نمونہ	-10.4782
▁شیڈول	-10.4788
لانے	-10.4791
ندھ	-10.4792
یئن	-10.4801
اکا	-10.4801
مثال	-10.4801
اؤن	-10.4835
im	-10.4837
▁ٹائ	-10.4838
راس	-10.4847
▁تھری	-10.4848
▁ہٹان	-10.4855
▁ٹرانز	-10.4856
▁ڈویلپمنٹ	-10.4857
▁گہری	-10.4857
▁سینئر	-10.4858
پن	-10.4858
▁رائن	-10.486
▁چک	-10.486
▁1973	-10.4861
▁افسر	-10.4864
▁پہنچایا	-10.4875
▁ڈک	-10.4887
▁دیکھت	-10.489
▁کارڈینلز	-10.4897
لیم	-10.4911
▁پریڈ	-10.4916
▁ذہنی	-10.492
▁کیبس	-10.492
▁آپریٹ	-10.4924
▁جانسن	-10.4934
▁الب	-10.4939
α	-10.4941
▁قزاق	-10.4941
▁ہوجائے	-10.4941
▁ٹرانسپورٹ	-10.4942
یسی	-10.4945
▁معدنیات	-10.4945
ٹھ	-10.4946
▁پریمیر	-10.4953
do	-10.4959
▁مانچ	-10.4961
▁کیپ	-10.4962
▁گزرت	-10.4965
▁میموریل	-10.4966
93	-10.4968
tic	-10.4974
ائب	-10.4977
ڈرو	-10.4979
ut	-10.4986
وانا	-10.4988
▁ویو	-10.4995
▁بیسن	-10.4996
نکس	-10.4999
▁میرین	-10.5016
▁کوریج	-10.5017
▁مفاد	-10.5026
▁اسپیڈ	-10.5026
▁بدتر	-10.5027
▁1966	-10.5029
▁کورس	-10.5034
▁کھلے	-10.5037
▁بارہو	-10.5037
▁ٹیبل	-10.5042
قاد	-10.5043
▁ماری	-10.5045
▁گیری	-10.506
32	-10.5063
▁سرنگ	-10.5064
▁لینڈنگ	-10.5067
بچپن	-10.5068
▁پہچان	-10.507
▁تائی	-10.5071
▁البمز	-10.5085
▁چلائی	-10.5103
▁برانڈ	-10.5112
داشت	-10.5112
▁سوراخ	-10.5112
کوک	-10.5112
▁کشتی	-10.5115
▁ریو	-10.512
▁وینس	-10.5133
▁گارڈن	-10.5135
▁گھنٹ	-10.5136
▁تز	-10.514
▁جگہوں	-10.5144
▁ایڈی	-10.515
▁اسٹیج	-10.5153
ad	-10.5154
▁مذا	-10.5156
فیفا	-10.5157
de	-10.5171
▁سپ	-10.5185
بصری	-10.5186
اڈا	-10.5188
▁لائنز	-10.5188
▁پریشان	-10.5189
▁ینگ	-10.519
اوی	-10.5195
▁مباحث	-10.5198
ۃ	-10.5198
▁احترام	-10.5198
▁تدفین	-10.5198
▁ٹرانسمیٹر	-10.5198
▁پائلٹ	-10.5198
▁1986	-10.5201
▁مماثلت	-10.5202
▁رکنیت	-10.5203
▁تعلیمات	-10.5208
▁تکلیف	-10.521
▁گرامر	-10.5214
▁دعوت	-10.524
▁38	-10.5244
لیب	-10.5252
▁مالا	-10.5262
ونک	-10.5279
احل	-10.5283
▁عرض	-10.5285
▁ریٹائر	-10.5285
▁انٹرفیس	-10.5285
▁نکولس	-10.5285
▁بتائیں	-10.5285
▁سیاستدان	-10.5285
▁جرسی	-10.5285
▁ریفرن	-10.5285
ینالاگ	-10.5285
▁روحانی	-10.5287
▁1914	-10.5287
▁1975	-10.5288
▁شائ	-10.5289
▁یوآن	-10.5289
▁فرانسسکو	-10.5293
▁کاسٹ	-10.5294
ولو	-10.5294
▁علی	-10.53
▁لیتے	-10.5302
توفی	-10.5308
▁بچت	-10.5311
ویانا	-10.5316
94	-10.532
▁موضوعات	-10.5321
▁گزر	-10.5322
▁44	-10.5323
▁مجسم	-10.5324
پری	-10.5327
▁ہالی	-10.533
▁روسیوں	-10.5334
مسٹر	-10.5341
▁اٹھ	-10.5341
▁لیٹر	-10.5342
1860	-10.5345
▁واک	-10.5346
▁نشا	-10.5351
اکی	-10.5354
▁نمائند	-10.5366
ومی	-10.5371
▁محافظ	-10.5372
▁1982	-10.5372
▁ارضیات	-10.5372
▁ناقد	-10.5372
▁فیکلٹی	-10.5372
▁غذا	-10.5372
▁اسٹریم	-10.5373
▁حصول	-10.5374
▁ایتھن	-10.5375
▁پروسیسنگ	-10.5376
▁آکسائڈ	-10.5377
▁ملحقہ	-10.5379
▁خبر	-10.5383
▁ریک	-10.5386
▁لمبا	-10.5395
▁دیں۔	-10.54
ارک	-10.541
▁ثانیہ	-10.5412
بار	-10.5418
فین	-10.542
طف	-10.5427
▁بیلٹ	-10.5431
الو	-10.5433
38	-10.5437
▁78	-10.5444
▁فنکشن	-10.5446
▁لنکا	-10.5461
▁BeiDou	-10.5461
▁صبح	-10.5461
▁میکسیکن	-10.5461
▁آفیسر	-10.5462
▁1981	-10.5464
الکان	-10.5465
▁مبصر	-10.5473
▁موز	-10.5481
▁آور	-10.5484
▁تصادم	-10.5487
▁اناج	-10.55
▁ہارٹ	-10.551
بلی	-10.5512
▁Y	-10.5517
▁اسکندر	-10.5517
▁ریپ	-10.5526
▁لغت	-10.555
▁موقف	-10.555
▁ناقص	-10.555
▁حامل	-10.555
▁خیراتی	-10.555
▁پتل	-10.555
▁خیز	-10.5551
▁ٹرافی	-10.5551
▁of	-10.5551
▁اوقیانوس	-10.5551
▁صحافی	-10.5551
▁1963	-10.5553
چارج	-10.5567
22	-10.557
▁ایڈم	-10.5573
▁KU	-10.5574
▁تھر	-10.5579
▁دھماکے	-10.5584
▁پیر	-10.5594
▁ریفارم	-10.5597
▁نوٹر	-10.5602
یروش	-10.5608
راڈ	-10.5609
▁اگ	-10.5611
▁ٹیون	-10.5627
ation	-10.5628
افت	-10.5635
▁حج	-10.5639
▁نارمن	-10.5639
▁چہر	-10.564
▁خطرناک	-10.5641
▁1958	-10.5643
▁سنگ	-10.5644
▁انکوڈنگ	-10.5645
▁جد	-10.5646
▁ڈیون	-10.565
▁ٹانگ	-10.5651
▁تھورنگیا	-10.5653
ورا	-10.5655
he	-10.566
▁ٹار	-10.5684
ٹرک	-10.5685
▁پوائنٹس	-10.5686
▁دست	-10.5687
▁لیپ	-10.5694
ابی	-10.5695
▁ویز	-10.5705
ٹیس	-10.5707
▁لوتھر	-10.5712
پوشی	-10.5716
▁روکا	-10.5725
▁سنبھالا	-10.5726
▁مطلق	-10.5731
▁ستار	-10.5731
▁کمشنر	-10.5732
▁ونگ	-10.5733
▁ڈیلی	-10.5737
▁فرقہ	-10.5738
لیتا	-10.5749
عام	-10.5749
رالی	-10.5754
▁پڑھا	-10.576
قان	-10.576
▁سکے	-10.5777
▁گھنٹہ	-10.5782
ؤ	-10.5794
▁رہے۔	-10.5802
▁کریں۔	-10.5802
▁واٹ	-10.5806
▁(15	-10.5809
▁سون	-10.581
▁چائلڈ	-10.5823
▁مفید	-10.5823
▁سرزمین	-10.5823
▁ارسطو	-10.5823
▁اسٹالن	-10.5824
▁کرنسی	-10.5824
▁1983	-10.5826
▁1937	-10.5827
▁جیکسن	-10.5828
84	-10.5828
tra	-10.5829
▁گڈ	-10.5829
▁وسطیٰ	-10.5833
▁مقال	-10.5853
▁مارکس	-10.5855
▁فضائیہ	-10.5864
▁ٹریل	-10.5868
▁بون	-10.5872
اکس	-10.5873
▁تبصر	-10.5876
▁ایجنسیوں	-10.5878
▁فنڈز	-10.5892
▁قرضے	-10.5894
سیلی	-10.5894
▁قبرصی	-10.5898
▁تاجر	-10.5905
یسس	-10.591
▁اولڈ	-10.591
▁چاند	-10.5912
▁رسومات	-10.5915
▁فلسطین	-10.5915
▁نشوونما	-10.5915
▁قرارداد	-10.5916
لپائن	-10.5918
▁1953	-10.5919
▁سپورٹ	-10.5919
بیری	-10.5927
▁سے۔	-10.5933
▁مہمان	-10.5933
ine	-10.5967
▁ویڈیوز	-10.5968
اصل	-10.5974
پولس	-10.5976
▁لڑی	-10.5978
▁مسیحی	-10.5985
یلی	-10.5987
▁خریدن	-10.5997
▁رجسٹر	-10.6
یکٹر	-10.6001
▁اتار	-10.6001
کالت	-10.6006
▁فش	-10.6007
▁کروز	-10.6008
ν	-10.6009
▁معاشروں	-10.6009
▁کنیکٹیکٹ	-10.6009
▁چٹان	-10.6013
▁شخصیات	-10.6014
44	-10.6016
ماپا	-10.6018
▁انع	-10.6022
▁معاون	-10.6024
▁بھیجن	-10.6045
ہو	-10.6052
ers	-10.6059
▁سار	-10.606
ائیں	-10.6075
▁صوتیات	-10.6082
▁فیری	-10.6096
▁اسکین	-10.6101
▁انتھروپولوجی	-10.6103
▁انڈرگریجویٹ	-10.6103
▁موافقت	-10.6103
▁نژاد	-10.6103
▁موٹ	-10.6103
▁خواند	-10.6103
▁گہرائی	-10.6105
▁1968	-10.6107
▁ایرینا	-10.6107
▁سوم	-10.6109
▁(6	-10.6114
▁عمری	-10.6115
آرکیٹیکچرل	-10.612
▁گلیڈ	-10.6123
▁بھیجے	-10.6124
ڈیم	-10.6126
▁وائرس	-10.6128
▁موریس	-10.613
▁نشستیں	-10.6131
▁شور	-10.6133
▁اوپ	-10.6136
عد	-10.6136
▁اہل	-10.6153
▁رائ	-10.6154
▁جوڑ	-10.6177
▁میڈر	-10.6177
یعنی	-10.618
06	-10.6182
▁دروازے	-10.6188
▁ابھر	-10.6188
ناک	-10.6189
-10	-10.6192
▁مملکت	-10.6198
▁ٹورنامنٹ	-10.6198
▁فعل	-10.6199
▁1922	-10.6201
▁1952	-10.6201
▁ٹیکنیک	-10.6202
▁علمی	-10.6205
دھوک	-10.6207
▁اوس	-10.6214
▁نوازا	-10.6215
▁رہی۔	-10.6229
▁سینیٹر	-10.6231
▁ریش	-10.6232
▁کردی۔	-10.6244
▁سننے	-10.6249
▁لوپ	-10.6255
▁کتابیں	-10.6263
▁وائر	-10.627
▁قبر	-10.6277
▁طیارہ	-10.6281
دوار	-10.6287
نصف	-10.6291
▁ایجوکیشن	-10.6295
▁تشویش	-10.6295
▁مسابقت	-10.6295
▁رومانٹک	-10.6295
یوئیفا	-10.6295
▁ظلم	-10.6295
▁براڈوے	-10.6295
▁انگیز	-10.6295
▁راجر	-10.6295
▁کنیکٹر	-10.6298
▁1880	-10.6301
▁چوتھائی	-10.6304
▁ووٹر	-10.6305
سیف	-10.6327
▁مونیک	-10.6332
▁رکھنا	-10.6346
ir	-10.6348
da	-10.6356
▁ریت	-10.6358
700	-10.6363
▁10،000	-10.6372
▁چمک	-10.6378
خطوط	-10.638
▁ٹیگ	-10.6387
منڈ	-10.6388
▁مقدونی	-10.6389
▁حساس	-10.6389
▁صوبائی	-10.6392
▁جرنل	-10.6392
▁افغانستان	-10.6392
▁پیلس	-10.6392
▁کوارٹر	-10.6393
▁1956	-10.6395
راگوئ	-10.6399
▁سیکنڈری	-10.64
▁برادریوں	-10.6409
کول	-10.6411
رنر	-10.6414
چین	-10.6423
▁بیری	-10.6429
▁پہنت	-10.6447
▁طبقات	-10.645
▁سنت	-10.6454
▁ویلی	-10.6467
▁شوز	-10.6478
▁ٹون	-10.6483
▁راجستھان	-10.649
▁سامورائی	-10.649
▁کیپسیٹر	-10.649
▁سنیما	-10.6491
▁الفریڈ	-10.6491
▁مخطوط	-10.6502
▁گرام	-10.6513
▁ایج	-10.6515
1965	-10.6515
900	-10.6518
ly	-10.6534
▁والٹر	-10.6538
▁نکلا	-10.6539
▁فیکٹری	-10.6544
رٹش	-10.6554
انٹ	-10.6554
▁سمر	-10.6554
قب	-10.6557
▁حاضری	-10.6562
▁چپ	-10.6576
▁دا	-10.6578
▁سینک	-10.6579
▁گیارہو	-10.6587
▁والٹ	-10.6587
▁تفہیم	-10.6589
▁محاصرے	-10.6589
▁شعور	-10.6589
▁اسسٹنٹ	-10.659
▁ورجل	-10.659
▁بلند	-10.6592
▁صلیب	-10.6592
▁1910	-10.6594
▁فارس	-10.6596
پونٹ	-10.6601
▁سفارتی	-10.6607
▁امور	-10.6608
▁آسمان	-10.6609
موٹو	-10.6612
▁ہینری	-10.662
ویلٹ	-10.662
▁گلاس	-10.663
وئی	-10.664
▁گرانٹ	-10.6642
کستان	-10.6653
شار	-10.6655
عتی	-10.6657
▁بٹن	-10.6673
ya	-10.6675
▁کیسل	-10.6684
▁نیورو	-10.6689
▁الکحل	-10.6689
▁برصغیر	-10.6689
▁بپتسمہ	-10.6689
▁نیویگیشن	-10.6689
▁پیشرفت	-10.6689
پٹھوں	-10.6689
▁برآ	-10.6691
▁ہاربر	-10.6693
▁منطق	-10.6693
▁1936	-10.6693
▁وفادار	-10.6693
▁اندراج	-10.6695
▁پلیس	-10.6697
کیٹ	-10.6701
▁بد	-10.6704
▁سرپرستی	-10.672
▁آربر	-10.6724
▁ناگ	-10.6738
▁ایٹن	-10.6741
وسس	-10.6741
▁جانشینی	-10.6743
▁مانگ	-10.6744
ارٹ	-10.6749
▁بروک	-10.6768
گیٹ	-10.6773
▁آنکھ	-10.6774
▁اتر	-10.6786
▁میونسپل	-10.6787
▁اسپتال	-10.679
▁قونصل	-10.679
▁براؤزر	-10.679
▁گیند	-10.679
▁ڈسکس	-10.679
▁سیلاب	-10.6795
▁سنڈ	-10.6803
دیش	-10.6814
▁کرای	-10.6818
▁جڑیں	-10.6823
▁الیکٹرانکس	-10.6831
▁قار	-10.6837
▁تنگ	-10.6845
▁گرے	-10.6851
▁نیک	-10.6854
▁مہمات	-10.6856
رب	-10.6861
▁مہنگ	-10.6867
▁برڈ	-10.6872
▁سیم	-10.6873
▁میکس	-10.6874
▁بچان	-10.6878
▁اقتصادی	-10.6892
▁ایریزونا	-10.6892
▁1943	-10.6895
▁1876	-10.6896
▁اینٹ	-10.6902
les	-10.6917
ot	-10.6919
وٹا	-10.692
▁اثاثوں	-10.6925
▁کورسز	-10.6927
▁حسی	-10.6929
em	-10.6931
▁all	-10.6935
▁ایکشن	-10.6944
▁انڈو	-10.695
ولس	-10.6951
فیلڈ	-10.6958
▁گزرن	-10.6964
▁بلو	-10.6982
▁کھینچ	-10.6984
▁دشمنی	-10.6985
یانگ	-10.6986
▁سائبر	-10.699
▁یونیورسٹیاں	-10.6993
▁ڈویلپر	-10.6995
▁ہدایات	-10.6995
▁میکانزم	-10.6995
▁چیمبر	-10.6995
▁مہایان	-10.6996
▁IV	-10.6998
▁دلیل	-10.6999
▁پچ	-10.7001
▁رجسٹرڈ	-10.7004
▁the	-10.7008
▁اٹھان	-10.7012
▁ریف	-10.7019
▁ہیر	-10.7021
▁گردش	-10.7023
ba	-10.7024
▁خطاب	-10.7024
اتوار	-10.703
شیا	-10.7033
مارٹ	-10.704
▁نار	-10.7044
▁نیٹو	-10.7072
▁توازن	-10.7073
▁مینوفیکچرر	-10.7074
بون	-10.7081
▁ہڈ	-10.7083
ac	-10.7085
▁کروائی	-10.7086
▁کھڑی	-10.7099
XNUMX	-10.7099
▁کروموسوم	-10.7099
▁نمٹن	-10.7099
▁متفق	-10.7099
▁گٹار	-10.7099
▁دیوالی	-10.7099
▁لائبیریا	-10.7099
کھ	-10.7099
نیویارک	-10.71
▁دربار	-10.71
▁اسٹراسبرگ	-10.71
▁گریمی	-10.7101
▁مشنری	-10.7104
▁اوپن	-10.7121
▁مارے	-10.7128
▁1800	-10.7131
▁شیک	-10.7135
07	-10.7136
▁ساتھیوں	-10.7142
دگی	-10.7144
کھاتے	-10.7164
▁کریم	-10.7166
کوٹ	-10.717
ویر	-10.717
▁انڈین	-10.7175
▁پیڈ	-10.7175
▁کوڈنگ	-10.7175
▁پہنن	-10.7188
وما	-10.7195
▁سیلول	-10.7197
ناس	-10.7202
▁قائ	-10.7203
Q	-10.7204
▁تنخواہ	-10.7204
▁ڈزنی	-10.7204
▁تابع	-10.7204
▁شبہ	-10.7205
▁سجاوٹ	-10.7205
▁دھار	-10.7205
▁1955	-10.7209
▁نائ	-10.7212
▁براڈ	-10.7212
▁فضلہ	-10.7214
▁پائیدار	-10.7214
▁1.5	-10.7215
▁جیل	-10.7215
▁آتش	-10.7219
▁مشی	-10.7224
▁آرگن	-10.7225
▁مینڈ	-10.7229
▁نیدرلینڈز	-10.7229
▁کھولی	-10.7231
▁دھن	-10.7235
▁لائٹنگ	-10.725
▁آبادکاری	-10.7251
گرام	-10.7265
ie	-10.7269
▁تھائی	-10.7274
▁لیڈر	-10.7283
▁خرید	-10.7289
▁صحا	-10.7309
▁قصب	-10.7311
▁انڈونیشیا	-10.7311
▁مخلوق	-10.7311
▁پھینک	-10.7311
▁لبنان	-10.7311
▁تمغ	-10.7311
▁1931	-10.7313
نڈا	-10.7315
بروکلین	-10.7317
ns	-10.7338
▁جاز	-10.7347
▁ہینڈ	-10.7352
▁اچھا	-10.7356
بیٹ	-10.7357
▁چڑھ	-10.7358
▁میز	-10.7361
▁انگل	-10.7366
▁تخمین	-10.737
ستان	-10.7373
09	-10.7381
▁ٹوک	-10.7393
ینس	-10.7396
غرب	-10.7413
▁تقوی	-10.7418
▁مغل	-10.7418
▁1946	-10.7422
▁منہ	-10.7425
▁سنٹرل	-10.7427
▁افزائ	-10.743
جولین	-10.7437
▁پکڑ	-10.7438
▁کنڈکٹر	-10.7449
▁رقبہ	-10.7452
▁حلق	-10.7454
یئم	-10.7468
▁دکھات	-10.7472
▁وول	-10.7472
▁ریورس	-10.7477
▁مونٹینی	-10.7479
qu	-10.748
یکم	-10.7482
▁کالجوں	-10.7498
▁کشش	-10.7503
لتھ	-10.7503
▁معاملہ	-10.7503
▁ڈیس	-10.7516
▁ویکسین	-10.7526
á	-10.7527
▁فائبر	-10.7527
▁ڈپٹی	-10.7527
▁گھومن	-10.7527
▁نادر	-10.7527
▁علوم	-10.7528
▁مادی	-10.7528
▁اہلیہ	-10.7529
▁سائ	-10.7529
▁1957	-10.753
▁1912	-10.753
▁1954	-10.753
▁1870	-10.7533
1934	-10.7536
▁ترکیب	-10.7536
▁لڑا	-10.7536
▁رہنمائی	-10.7546
▁ایری	-10.7547
▁نیشن	-10.7553
▁کالم	-10.7556
▁کینسر	-10.7556
▁ٹریننگ	-10.7561
pr	-10.7564
ھو	-10.7572
▁پگھلن	-10.7576
▁سہر	-10.7581
▁ہوں۔	-10.7588
ou	-10.7592
▁تپ	-10.7593
▁ریگولیٹر	-10.7594
▁ثانی	-10.762
1840	-10.7626
▁پڑھ	-10.7631
نیچر	-10.7634
▁راکٹ	-10.7635
▁عبرانی	-10.7637
▁سکھایا	-10.7637
والنسین	-10.7637
▁اسپیکر	-10.7637
▁قبرستان	-10.7637
▁مجھ	-10.7637
▁کردیئے	-10.7638
▁1938	-10.7639
▁گلو	-10.7647
▁فرار	-10.7652
▁چن	-10.7654
▁سائنسز	-10.7657
▁ٹرائ	-10.7659
نوٹ	-10.766
+	-10.7661
دال	-10.7666
▁وید	-10.7668
▁موم	-10.7673
▁خاصیت	-10.768
▁نکالن	-10.7684
▁حص	-10.7686
▁بھیج	-10.7692
سکو	-10.7706
ٹکس	-10.7716
روجن	-10.7718
▁Pa	-10.773
▁ماریا	-10.7735
▁کوئین	-10.7738
▁افرا	-10.7743
یڈس	-10.7746
▁1861	-10.7748
▁خروش	-10.7748
▁دشواری	-10.7748
▁مرکری	-10.7748
▁چربی	-10.7749
▁ناظرین	-10.7749
▁1962	-10.7751
▁1942	-10.7752
ke	-10.7763
▁فائنلسٹ	-10.7769
▁ٹرن	-10.7779
▁لینا	-10.7786
▁ٹیپ	-10.7787
▁صنعتوں	-10.7791
▁فلائٹ	-10.7796
▁Sa	-10.7796
▁جوڑا	-10.7796
▁شیٹ	-10.7798
au	-10.7806
▁آئے۔	-10.7822
▁لاما	-10.7827
سیٹ	-10.7829
ber	-10.784
▁اشارے	-10.7853
▁زلزلہ	-10.7855
▁1،	-10.7858
▁ہڑتال	-10.786
▁وزراء	-10.786
▁تعامل	-10.786
▁انگوٹی	-10.7861
▁اہلکار	-10.7861
▁نیند	-10.7861
▁مسود	-10.7862
▁کررہ	-10.7865
▁کنکشن	-10.7865
▁گھاس	-10.7866
▁مائع	-10.787
▁سونگ	-10.7871
▁(10	-10.7877
▁ٹیلر	-10.7878
▁پرنٹنگ	-10.7892
▁ڈوب	-10.7892
Y	-10.7902
-14	-10.7905
▁مڈل	-10.7907
▁کنٹرولر	-10.7908
نفا	-10.7909
▁ہیری	-10.7914
▁بائی	-10.7917
▁ریسل	-10.7921
▁پہنچا۔	-10.7927
جایا	-10.793
وٹی	-10.7948
پنگ	-10.7951
▁ابو	-10.7955
▁بیٹھ	-10.7956
1830	-10.7957
شل	-10.7958
ریچ	-10.7964
▁زیڈ	-10.7972
▁ڈھال	-10.7974
▁اسٹیفن	-10.7974
▁رومانوی	-10.7974
▁چودہویں	-10.7974
▁گینگ	-10.7975
▁بادل	-10.7976
▁درکار	-10.7976
کیوبزم	-10.7976
▁ٹرانزسٹر	-10.7976
▁ریویو	-10.7978
▁کلارک	-10.7978
▁1919	-10.7978
▁1959	-10.7979
▁گریجوی	-10.7981
▁آرٹیکل	-10.7984
▁بیچ	-10.7987
▁سنہر	-10.7987
31	-10.7997
▁ایٹمی	-10.8017
▁مچھلی	-10.8025
خاص	-10.8038
کور	-10.8046
1929	-10.8049
▁پندرہو	-10.8049
4،000	-10.8057
▁پہنچی	-10.806
▁لائنیں	-10.806
لوم	-10.8079
▁چھاپ	-10.808
ī	-10.8089
▁اعلامی	-10.8089
▁ایش	-10.8089
▁سپلائی	-10.8089
▁دکھائی	-10.809
▁کیریبین	-10.8091
▁1913	-10.8092
▁سوئچ	-10.8094
▁دق	-10.8098
گوار	-10.811
▁چکر	-10.8112
سبرگ	-10.8118
▁ہاکی	-10.8126
03	-10.8128
▁سنی	-10.8129
▁ہڈس	-10.8138
▁میو	-10.815
▁ٹاورز	-10.8164
▁ڈری	-10.8164
ماس	-10.8171
ھا	-10.8172
▁کھل	-10.8186
▁گھوڑے	-10.8192
▁متغیر	-10.8194
▁گورن	-10.8194
▁ہاس	-10.8204
▁ستم	-10.8204
ɪ	-10.8205
1)	-10.8205
▁تصفیہ	-10.8205
▁نامعلوم	-10.8205
▁نباتات	-10.8205
▁آرائش	-10.8205
حرف	-10.8206
▁1947	-10.8209
▁لاکھ	-10.8209
▁کیوبا	-10.821
▁ٹرام	-10.8213
▁ٹٹو	-10.8214
▁رسل	-10.8219
▁اعصابی	-10.8221
che	-10.8223
▁کھولن	-10.8232
▁فران	-10.8233
▁La	-10.8233
ویئر	-10.8238
▁نشانات	-10.8239
▁ہمار	-10.8245
▁ایون	-10.8249
ارت	-10.8256
ag	-10.8259
▁(12	-10.8271
▁ترقیات	-10.8274
0,000	-10.8284
▁نیدرلینڈ	-10.8295
500	-10.8308
بعد	-10.8315
مپ	-10.8318
ویچ	-10.832
▁استقبال	-10.8323
▁ممنوع	-10.8323
▁گنجائش	-10.8323
▁ماڈیول	-10.8323
▁فساد	-10.8323
▁لیفٹینن	-10.8323
▁ڈنمارک	-10.8323
▁مزاج	-10.8323
▁محور	-10.8323
▁دکھائے	-10.8323
▁1890	-10.8328
▁1925	-10.8328
▁وہیل	-10.8332
ورباچ	-10.8333
خیر	-10.8335
▁بنا۔	-10.8343
▁لہروں	-10.8343
شان	-10.8344
▁1500	-10.8347
100	-10.8353
ڈور	-10.8354
▁منچو	-10.8362
▁عقیدت	-10.838
▁ڈوم	-10.8383
▁لیڈی	-10.84
hi	-10.8403
bi	-10.8406
پوزیشن	-10.8415
قیمتوں	-10.8422
یئنز	-10.8422
▁ملازم	-10.843
▁De	-10.843
ندگان	-10.8439
▁زر	-10.8439
▁بوناپارٹ	-10.8442
▁مرطوب	-10.8442
▁مستثنی	-10.8442
▁گہرے	-10.8442
▁انٹرویو	-10.8442
▁ایڈمرل	-10.8442
▁ناممکن	-10.8442
▁دھکیل	-10.8442
▁اینگلیکن	-10.8442
▁آرگنائزیشن	-10.8442
▁حیات	-10.8443
▁کاٹن	-10.8444
نگو	-10.8447
▁کینٹن	-10.845
▁تم	-10.8451
▁لوٹ	-10.8459
▁اخلاقیات	-10.846
▁(11	-10.8466
▁ولیمز	-10.847
▁اسٹیو	-10.8479
7،000	-10.8486
▁بلاکس	-10.8492
so	-10.8503
شیم	-10.8504
▁جونز	-10.8508
▁سکھ	-10.8513
نبرگ	-10.8517
باکو	-10.8518
▁چیزیں	-10.8518
3،000	-10.8522
▁چینلز	-10.8524
کھلی	-10.8544
میک	-10.8548
▁وفاداری	-10.8557
▁ناراض	-10.856
▁Al	-10.8561
λ	-10.8562
▁افادیت	-10.8562
▁وابستگی	-10.8562
▁دانشور	-10.8562
▁کمپیکٹ	-10.8562
▁مایوس	-10.8563
▁ملیشیا	-10.8564
▁موجد	-10.8565
▁بنگال	-10.8568
▁بھائیوں	-10.8569
▁سربیا	-10.857
▁سنگین	-10.8576
5)	-10.858
▁منصب	-10.8584
▁ستنداریوں	-10.8586
بورن	-10.859
▁اٹھات	-10.8593
▁عقل	-10.8606
▁کمیون	-10.8609
▁پلانک	-10.8612
▁ایرو	-10.8618
▁نمائندے	-10.8623
▁آرائی	-10.8643
▁Ro	-10.8645
▁سیکس	-10.8655
باد	-10.8657
سپر	-10.867
▁ڈیسک	-10.868
▁ایتھوپیا	-10.8684
▁فرنچائز	-10.8684
▁میکینٹوش	-10.8684
▁آکسیجن	-10.8684
▁قطر	-10.8684
▁سویڈن	-10.8684
▁ساختی	-10.8684
▁جملے	-10.8685
▁تولید	-10.8685
▁پکچر	-10.8686
سٹرکچر	-10.8686
▁1911	-10.8688
▁کیمسٹری	-10.8688
▁نالی	-10.8692
بشمول	-10.8695
▁(8	-10.8697
خود	-10.87
▁باغ	-10.8705
▁چاہ	-10.8708
▁فونٹ	-10.8709
▁کیلون	-10.8711
نیو	-10.8714
▁شیو	-10.8721
▁بینر	-10.8724
▁فرینکل	-10.8726
کوف	-10.8732
-12	-10.8734
▁نمائندہ	-10.8751
▁ایبل	-10.8753
▁شماریات	-10.8762
▁ارل	-10.8774
gu	-10.8783
▁قبائلی	-10.8784
▁شہزاد	-10.8788
▁مختص	-10.8794
ینیکل	-10.8802
▁مردہ	-10.8802
▁نہیں۔	-10.8805
▁الح	-10.8807
ASCII	-10.8808
▁انتباہ	-10.8808
▁روزمرہ	-10.8808
▁پلاسٹک	-10.8808
▁شوہر	-10.8808
▁نامیبیا	-10.8809
▁کیپٹن	-10.8813
▁اینلیڈ	-10.8813
▁گنتی	-10.8814
▁فرمان	-10.8815
▁Re	-10.8816
▁انفارمیشن	-10.8822
▁پائپ	-10.8823
▁اسٹڈ	-10.8824
مارک	-10.8824
AC	-10.8829
ونیا	-10.883
▁برآمدات	-10.8842
جنگ	-10.8843
▁ڈاٹ	-10.8843
▁انڈر	-10.8848
▁جیم	-10.8851
قر	-10.886
▁فائز	-10.8865
▁سباق	-10.8871
ایل	-10.8872
▁چیٹ	-10.8872
▁تیر	-10.8878
▁آجر	-10.8879
ورو	-10.8881
▁ماسکو	-10.8882
ru	-10.8888
▁عقلی	-10.8888
▁ہاؤسز	-10.8904
gi	-10.8912
▁کوئل	-10.8914
▁180	-10.8919
▁رائٹس	-10.8921
جہتی	-10.8922
con	-10.8924
▁تعا	-10.8927
▁مثلث	-10.8933
▁محاذ	-10.8933
▁ڈپارٹمنٹ	-10.8933
▁1909	-10.8935
▁چوری	-10.8936
▁1927	-10.8937
▁فوسل	-10.8938
-3	-10.8942
▁گز	-10.8948
ہٹلر	-10.8952
▁کانسی	-10.8956
اڑ	-10.896
▁میٹنگ	-10.8963
سپین	-10.8963
▁قوس	-10.8969
ظ	-10.8975
hu	-10.8997
▁ڈیجی	-10.9011
▁250	-10.9024
▁کتا	-10.9031
▁ووٹنگ	-10.9037
▁کمپیوٹ	-10.9043
دان	-10.9045
▁قیمتی	-10.9053
▁ریزولوشن	-10.9059
▁بریگیڈ	-10.9059
▁پوچھ	-10.9059
▁پارٹنر	-10.9059
▁ونڈسر	-10.9059
▁بچایا	-10.906
▁داغ	-10.906
▁پرسکون	-10.906
▁1924	-10.9063
ولوجیکل	-10.9065
▁آیا۔	-10.9068
-15	-10.9081
▁براڈکاسٹ	-10.9086
▁لسانیات	-10.9088
صال	-10.9088
▁سوالات	-10.9089
ورز	-10.9095
▁VII	-10.9098
کلاسیکل	-10.91
ٹروپ	-10.91
▁تنقیدی	-10.9109
▁لگات	-10.911
▁لکیری	-10.9124
▁کمائی	-10.9138
امین	-10.9146
▁لائٹس	-10.9163
▁استثنا	-10.918
▁بلندی	-10.9184
▁کنفیڈریٹ	-10.9187
▁اعمال	-10.9187
▁وائلڈ	-10.9187
▁اڑنے	-10.9189
▁ریئل	-10.9189
▁سلو	-10.9192
▁1933	-10.9193
ائڈس	-10.9194
▁1853	-10.9194
▁میکانک	-10.9195
sh	-10.9197
ant	-10.9197
▁بھارت	-10.9197
pe	-10.9198
▁چارلز	-10.9199
▁ڈاون	-10.9199
▁بلا	-10.9216
ver	-10.9228
▁مشیر	-10.9229
,000،	-10.9233
عزم	-10.9244
▁بیکر	-10.925
روم	-10.9274
ڑے	-10.9277
بال	-10.9282
▁سوٹ	-10.9291
ll	-10.9292
▁میلان	-10.9305
▁ماؤ	-10.9308
▁جاسکت	-10.9314
▁لتھوانیا	-10.9314
▁گیر	-10.9315
ι	-10.9317
فیمیکوم	-10.9317
▁انسائیکلوپیڈیا	-10.9317
▁نصاب	-10.9317
▁جملہ	-10.9318
▁سوڈان	-10.9318
▁بیلجیم	-10.9318
▁گھیر	-10.9319
▁1951	-10.9321
-16	-10.9335
▁200،000	-10.9338
▁اسٹین	-10.9347
▁بریک	-10.9351
mp	-10.9381
3)	-10.9387
سرو	-10.9389
▁کپڑ	-10.9393
▁ٹینک	-10.9394
ڈڈ	-10.9404
▁ٹیکنک	-10.9406
▁جمناسٹک	-10.9408
▁600	-10.9408
▁مادر	-10.9432
وسط	-10.9435
▁کینیڈی	-10.9435
ang	-10.9446
▁مسجد	-10.9449
▁انصاف	-10.9449
▁عہدوں	-10.9451
▁فیملی	-10.9452
▁کہا۔	-10.9455
▁1848	-10.9457
▁شاپنگ	-10.9457
▁فورم	-10.9459
▁گلوبل	-10.9462
داریوں	-10.9467
▁ویٹیک	-10.9468
▁پرائم	-10.9468
▁ڈیو	-10.947
▁تجاوز	-10.947
▁گلیشیئرز	-10.9476
▁کولمب	-10.9477
▁ریفری	-10.9479
▁کاؤنٹر	-10.948
▁عصر	-10.9491
que	-10.9507
2،000	-10.9517
ach	-10.9518
▁لائے	-10.9528
▁لوس	-10.9532
بان	-10.9534
tor	-10.9536
بورو	-10.9542
ٹیج	-10.9543
پہلے	-10.9548
▁فیل	-10.9552
سٹائن	-10.9554
▁گلیشیئر	-10.9555
رکیڈین	-10.9564
ڈرامہ	-10.9576
▁منج	-10.9579
▁ثالث	-10.9582
▁لیورپول	-10.9582
▁مشاورت	-10.9582
▁ملائیشیا	-10.9582
▁پنسلوانیا	-10.9582
▁ایکسپریس	-10.9582
▁ارجنٹائن	-10.9582
▁ڈسپل	-10.9582
▁اٹھائے	-10.9583
▁شیع	-10.9587
▁ہیکٹر	-10.9589
لینز	-10.9593
▁ہب	-10.9599
▁ٹچ	-10.9599
▁Ca	-10.9599
▁ہاک	-10.9602
▁فورب	-10.9605
▁رینک	-10.9606
▁مہا	-10.9628
یکیشن	-10.9632
▁لفٹیں	-10.9632
▁راہ	-10.9651
▁ملا۔	-10.9654
▁میسنک	-10.9656
▁بانٹ	-10.9658
▁لینگ	-10.9659
مکھی	-10.9665
▁میڈل	-10.9665
▁پٹی	-10.9674
▁کیمیکل	-10.9692
حقیقت	-10.9696
لاطینی	-10.9696
ae	-10.9706
▁چڑ	-10.9706
ث	-10.9711
▁اونچ	-10.9714
▁ناپسندید	-10.9718
▁افق	-10.9718
▁خوراک	-10.9718
▁آگاہ	-10.9718
ہجوم	-10.9718
▁رسال	-10.9718
▁1907	-10.972
▁پرامن	-10.9721
▁سسلی	-10.9722
▁بتات	-10.9722
▁1855	-10.9725
▁پلاٹ	-10.9754
▁روٹر	-10.9759
ڈیس	-10.9777
▁فلا	-10.9787
▁اسٹیون	-10.9799
br	-10.9807
▁فکس	-10.9809
6،000	-10.9824
▁میگا	-10.9833
یرو	-10.9839
▁سیکھ	-10.9841
دادا	-10.9848
▁میٹل	-10.9854
▁اطمینان	-10.9854
▁ایمسٹرڈیم	-10.9854
▁مراعات	-10.9854
▁محی	-10.9856
▁ہسٹری	-10.9857
▁کھڑکی	-10.9859
▁ورجن	-10.986
▁گرڈ	-10.9861
جارہ	-10.9861
▁سولہو	-10.9866
wa	-10.9873
▁لامحدود	-10.9874
▁ٹیوب	-10.9874
▁ہولڈر	-10.9875
▁آگیا	-10.9875
▁ترجم	-10.9876
▁ٹوٹن	-10.988
▁بلڈ	-10.9889
8)	-10.989
▁دھاتی	-10.9901
▁پیٹرک	-10.9911
ٹور	-10.9922
▁لنکن	-10.9922
▁موری	-10.9923
▁تنظیمیں	-10.9923
▁سمجھا۔	-10.9932
▁جلاوطنی	-10.9936
▁Co	-10.994
پوٹ	-10.9946
▁کریمیا	-10.9947
▁املا	-10.9948
▁گار	-10.9959
▁جوش	-10.9959
▁گرفتاری	-10.9961
جیب	-10.9964
▁شرمن	-10.9964
▁لمب	-10.9973
▁ڈیوس	-10.9975
▁صفح	-10.9987
▁محروم	-10.9993
▁کیمبرج	-10.9993
▁سمفونی	-10.9993
▁اندوز	-10.9994
▁سبسڈی	-10.9994
▁لمح	-10.9994
▁اوزار	-10.9995
▁دراز	-10.9996
▁چاول	-10.9998
▁1871	-10.9999
▁PS	-11
نگھائی	-11
▁فہم	-11.0006
تاب	-11.0009
▁مرض	-11.0009
▁ارادے	-11.0016
▁وارنر	-11.0023
▁پوشید	-11.0025
▁ڈرم	-11.0026
▁سکری	-11.0027
▁میٹھ	-11.0031
▁خل	-11.0032
▁شاہ	-11.0035
▁اورنج	-11.0036
ولیتھک	-11.0037
lu	-11.0037
یئرز	-11.0038
▁نووا	-11.0054
وئل	-11.0058
▁حلف	-11.0059
▁ہینڈل	-11.007
نتھ	-11.0077
▁ننگ	-11.0079
وٹس	-11.008
▁سلیک	-11.0081
▁پبلشر	-11.0084
▁علام	-11.0096
ائع	-11.0097
4)	-11.0102
▁پروسیسر	-11.0104
▁گرافک	-11.0105
▁پوت	-11.0112
▁ڈینس	-11.0113
▁سرور	-11.0122
▁امپ	-11.0125
خراج	-11.0132
▁کاؤنٹ	-11.0132
▁خوشحال	-11.0134
▁پیچیدگی	-11.0134
▁دھڑ	-11.0134
▁شعل	-11.0134
▁دودھ	-11.0134
▁اسکواڈرن	-11.0135
▁کھال	-11.0136
▁واچ	-11.0143
▁شریف	-11.0146
▁جیوا	-11.0149
حکومت	-11.0159
▁برائن	-11.017
▁مہلک	-11.0178
ill	-11.0182
▁سرحدی	-11.0185
▁امکانات	-11.019
▁160	-11.0198
▁ہورن	-11.0203
▁ترجمان	-11.0205
▁شہرت	-11.0206
▁ضابط	-11.0209
▁پہنا	-11.0211
▁مائیکرو	-11.0215
عاد	-11.0221
▁عربوں	-11.024
▁استوا	-11.0249
▁سوان	-11.0251
ائنٹ	-11.0257
وشن	-11.026
طلاق	-11.0276
▁بزرگ	-11.0277
RIBA	-11.0277
▁بالادست	-11.0277
▁خمیر	-11.0277
▁پرجوش	-11.0277
▁سککوں	-11.0278
▁فنگس	-11.0278
▁بودھ	-11.0278
▁ہیومن	-11.0278
سلط	-11.0279
▁بستر	-11.028
▁1921	-11.0282
▁مارجن	-11.0286
▁(199	-11.0288
▁لگائی	-11.0291
IN	-11.0301
▁ڈیزائنر	-11.0301
▁بھاپ	-11.0305
راغ	-11.0307
توازن	-11.0313
▁صفت	-11.0314
▁ریاضیات	-11.0315
▁آرکی	-11.0316
خط	-11.0326
▁اسکی	-11.0331
▁پلین	-11.0343
▁جات	-11.0345
اٹا	-11.0362
▁پہنے	-11.0363
▁خریدی	-11.037
▁تاروں	-11.0374
▁دیکھتا	-11.0377
لیف	-11.0384
mon	-11.0396
▁ہلز	-11.0401
▁نیپول	-11.0403
▁اسکیل	-11.0405
▁گولڈن	-11.0409
/'	-11.0411
▁منطقی	-11.0416
ورش	-11.0417
▁اطراف	-11.0422
▁بلغاری	-11.0422
▁سویڈش	-11.0422
▁پھنس	-11.0422
▁پھٹ	-11.0422
▁پروڈکٹ	-11.0422
▁جعل	-11.0422
▁فزکس	-11.0422
▁طرازی	-11.0422
▁لارنس	-11.0422
▁کنزرویٹو	-11.0423
▁لچکدار	-11.0423
▁بازار	-11.0425
ist	-11.0426
کروشیا	-11.0427
▁کلیسیا	-11.0427
▁برتر	-11.043
▁لوئی	-11.0435
▁میگن	-11.0435
▁گاڑیاں	-11.0437
X	-11.0443
وئیل	-11.0443
▁کیمیکلز	-11.0451
▁پائن	-11.046
▁قیا	-11.0462
مادیت	-11.0466
▁ٹکٹ	-11.047
ومیٹر	-11.0478
▁فارمول	-11.0487
چٹ	-11.0487
سلاو	-11.049
▁خا	-11.0501
ted	-11.0503
▁احاط	-11.0521
بیس	-11.053
اگا	-11.0533
▁گلیوں	-11.0542
▁نکالا	-11.0547
sch	-11.0547
▁مہینہ	-11.055
▁تیرہ	-11.0553
قہ	-11.0557
US	-11.056
یوا	-11.0564
▁انشورنس	-11.0569
▁تجریدی	-11.0569
▁تضاد	-11.0569
▁فیوژن	-11.0569
▁ماڈرن	-11.0569
▁بیلاروس	-11.0569
▁مویشی	-11.0569
▁اینڈریو	-11.057
▁مارگریٹ	-11.057
▁چلائے	-11.0573
▁1928	-11.0573
▁وکٹر	-11.0575
▁1898	-11.0577
یکٹس	-11.0578
▁روکت	-11.058
▁ہرٹز	-11.0585
▁درواز	-11.0586
▁گھوڑ	-11.0586
ویک	-11.0586
-4	-11.0586
▁دبان	-11.0589
▁دھماکہ	-11.059
کوپن	-11.0601
ard	-11.0605
▁درجن	-11.0608
▁فائٹر	-11.0611
▁سازش	-11.0613
▁سرگرم	-11.0622
وال	-11.0626
9)	-11.0629
▁پہچانا	-11.064
▁آنت	-11.0646
▁توڑن	-11.0656
▁سیکھا	-11.0658
ko	-11.0668
معاوضہ	-11.0698
▁عبد	-11.0716
▁واقف	-11.0716
κ	-11.0718
−	-11.0718
ρ	-11.0718
محاصرہ	-11.0718
▁آئسوٹوپ	-11.0718
▁الجھن	-11.0718
▁تنصیب	-11.0718
سعود	-11.0718
▁گوتم	-11.0719
▁کشیدگی	-11.0719
▁خوفزد	-11.0719
▁ہارورڈ	-11.072
▁کاپٹر	-11.072
▁خلاص	-11.0722
▁متاثرین	-11.0723
▁میڈیم	-11.0723
▁مندرج	-11.073
ثنا	-11.073
▁ڈیلٹا	-11.0733
▁نوک	-11.0734
▁1850	-11.0735
▁رسی	-11.0737
▁گوڈ	-11.0744
ٹائن	-11.0747
des	-11.0756
▁پیئر	-11.077
▁آگسٹ	-11.077
گٹ	-11.0774
▁ہاورڈ	-11.0775
لاؤ	-11.0777
ٹیٹ	-11.0783
ess	-11.0784
tes	-11.0784
لورین	-11.0786
▁رجحانات	-11.0786
▁گرل	-11.0788
0)	-11.0793
▁لکیر	-11.0794
su	-11.0795
▁دلائی	-11.0796
غیر	-11.0801
سابقہ	-11.0809
▁حادث	-11.082
▁چوٹ	-11.0822
ٹرم	-11.0822
▁وکٹوری	-11.0823
▁لگے	-11.083
ism	-11.0841
▁آرکیٹیکچر	-11.0843
▁گناہ	-11.0844
▁جڑی	-11.0848
▁انٹارکٹک	-11.087
▁قیصر	-11.087
▁لمیٹڈ	-11.087
▁مراٹھا	-11.087
▁پلازہ	-11.087
▁انخلا	-11.087
▁روادار	-11.087
▁دوگنا	-11.087
▁پڑے	-11.087
▁مورفولوجی	-11.087
▁کیپیٹل	-11.087
▁ہارمون	-11.0872
▁بیوہ	-11.0873
▁گائیڈ	-11.0873
▁1908	-11.0873
▁پالت	-11.0888
ورین	-11.0889
لیشن	-11.0898
od	-11.0903
▁چھپ	-11.0906
▁(9	-11.091
▁عین	-11.0913
▁رہیں	-11.0927
تھم	-11.0928
tion	-11.0929
جیکٹ	-11.0955
طرفہ	-11.0961
داد	-11.0974
▁رقب	-11.0978
پیدائش	-11.0978
وسکی	-11.0983
▁استح	-11.0987
▁ہیلنس	-11.0991
▁کامن	-11.0995
▁سود	-11.0996
▁پکڑن	-11.1004
▁دعا	-11.1005
vo	-11.1013
▁سیلز	-11.1016
ab	-11.1023
▁مدعو	-11.1024
▁مسیسیپی	-11.1024
▁میتھوڈسٹ	-11.1024
▁مکانات	-11.1024
▁آڈیشن	-11.1024
▁انسٹال	-11.1024
▁بقا	-11.1024
▁پرجیوی	-11.1024
▁ایبیریا	-11.1025
▁منیجر	-11.1025
▁سائمن	-11.1025
▁ذر	-11.1028
▁بریوری	-11.1029
▁1854	-11.1031
▁لٹل	-11.1035
▁ضمنی	-11.1036
▁لاش	-11.1037
6)	-11.1039
▁نقاد	-11.104
▁غز	-11.104
▁بیداری	-11.1041
▁امام	-11.1041
▁بوک	-11.1041
▁وائن	-11.1054
▁رہن	-11.1057
▁شارٹ	-11.1057
▁بریڈ	-11.1059
▁وولٹ	-11.1072
▁مج	-11.1075
▁پیٹرن	-11.1078
▁پسندانہ	-11.1083
▁(7	-11.1085
▁آرکٹ	-11.1098
▁موٹی	-11.1103
▁بربر	-11.1109
▁سیزر	-11.1115
▁فلپس	-11.1117
▁گلاب	-11.1121
کھا	-11.1128
▁مائیک	-11.1131
ry	-11.1139
ورن	-11.114
ضم	-11.114
ell	-11.1166
▁(13	-11.1167
▁کلور	-11.1168
▁ہٹن	-11.1169
▁لیول	-11.1177
▁کرے۔	-11.1179
▁capacitor	-11.118
▁ایلومینیم	-11.118
▁تفتیش	-11.118
▁ریزورٹ	-11.118
▁صوابدید	-11.118
▁پلائموتھ	-11.118
▁مجاز	-11.1181
▁یادداشت	-11.1181
▁خو	-11.1182
▁پہی	-11.1183
▁گونج	-11.1183
▁1932	-11.1184
▁ہیرالڈ	-11.1185
▁کٹھ	-11.1186
▁AD	-11.1187
▁ریگ	-11.1187
▁تس	-11.1195
▁کاسٹیل	-11.12
▁آپشن	-11.1204
▁کمان	-11.1204
▁اسٹیپ	-11.1215
▁فوت	-11.1215
▁فریڈم	-11.1219
7)	-11.122
روٹ	-11.1227
iz	-11.1227
▁ہیلن	-11.1232
▁سنبھالن	-11.1242
1865	-11.1249
ئل	-11.1261
▁سچ	-11.1264
▁بیمار	-11.1265
▁بدلت	-11.1283
سڈن	-11.1308
▁40،000	-11.131
ton	-11.1319
*	-11.1339
▁Schwarzenegger	-11.1339
▁ادراک	-11.1339
▁اکنامک	-11.1339
▁صحیف	-11.1339
▁مراقبہ	-11.1339
▁آبدوز	-11.1339
کرسمس	-11.1339
▁وارث	-11.134
ماچل	-11.134
▁مقدونیائی	-11.1344
▁بلایا	-11.1346
قار	-11.1347
▁انٹرسٹیٹ	-11.1347
▁فکر	-11.1349
▁ریڈار	-11.1362
▁ڈیوٹی	-11.1368
▁30،000	-11.1372
▁وینڈ	-11.1374
فریقین	-11.1378
▁میگ	-11.1379
▁122	-11.1379
NA	-11.138
▁ڈرائیور	-11.1384
▁کرائے	-11.1391
1903	-11.1392
روگ	-11.1398
لیئر	-11.1406
▁دیوی	-11.1407
فریڈ	-11.1411
انیا	-11.1412
سارا	-11.1414
▁کامیڈی	-11.1418
نٹوش	-11.1429
▁گرو	-11.1445
فری	-11.1451
▁سروسز	-11.1453
▁بھیجی	-11.1454
▁ڈالت	-11.1464
ff	-11.1468
ica	-11.1468
▁فیز	-11.1471
▁ٹینس	-11.1471
▁اداکارہ	-11.1479
سینو	-11.1479
▁20،000	-11.1489
نوشی	-11.149
▁جسٹس	-11.1497
▁اعضاء	-11.15
▁افلاطون	-11.15
▁بالواسطہ	-11.15
▁تشہیر	-11.15
▁تعصب	-11.15
▁عجائب	-11.15
▁لطیفہ	-11.15
▁ماتحت	-11.15
▁کیٹالان	-11.15
▁XXIII	-11.15
▁فروش	-11.15
▁پٹریوں	-11.15
▁کلوگرام	-11.15
▁گزارا	-11.15
▁تاریک	-11.1502
ana	-11.1503
▁حساسیت	-11.1503
▁ہائپر	-11.1503
▁ٹائٹو	-11.1505
امریکی	-11.1505
▁1857	-11.1506
▁فیکٹریوں	-11.1509
▁کلچر	-11.1515
du	-11.1516
▁احمد	-11.1516
▁قاص	-11.1524
▁ڈسکو	-11.1531
▁سیلون	-11.1543
ung	-11.1553
▁سلور	-11.1559
▁بنتے	-11.1563
▁رپورٹس	-11.1564
▁ہرن	-11.1565
▁اسٹرا	-11.1565
▁جلاوطن	-11.1567
▁وائڈ	-11.1569
زیر	-11.1573
▁فیم	-11.1575
2.5	-11.158
بڑ	-11.1587
ja	-11.1591
سٹس	-11.1599
▁لوگو	-11.1632
▁جوڑی	-11.1651
!	-11.1664
▁ہیمپشائر	-11.1664
▁برانچ	-11.1664
▁زیلڈا	-11.1664
▁شاہراہ	-11.1664
▁کارپوریٹ	-11.1664
▁معجز	-11.1664
▁وائلن	-11.1664
▁گھومت	-11.1664
▁اسٹینڈرڈ	-11.1664
▁تاثر	-11.1664
▁فادر	-11.1664
▁معائن	-11.1665
▁جڑو	-11.1668
▁زاوی	-11.1669
▁دیہات	-11.167
رتی	-11.1674
▁Se	-11.1679
▁1.2	-11.168
▁پہنچت	-11.1691
▁ٹائی	-11.1694
▁بھگ	-11.1707
▁انڈی	-11.171
▁آئیں	-11.1714
▁تیس	-11.1719
▁جانتے	-11.1724
▁معاف	-11.174
▁فرائ	-11.1741
▁لوئ	-11.1743
sta	-11.1743
▁فریڈی	-11.1757
▁یارڈ	-11.1763
واڈ	-11.1764
▁نیوٹن	-11.1768
1875	-11.177
▁کرنی	-11.1793
▁سوگ	-11.1798
▁جل	-11.1802
▁کمیونیکیشن	-11.1803
▁عملدرآمد	-11.183
▁کرسچن	-11.183
ü	-11.183
▁نفرت	-11.183
▁الہام	-11.1831
▁خاموش	-11.1831
▁کارٹون	-11.1831
▁ٹیکسٹائل	-11.1831
▁پیکیج	-11.1831
چانک	-11.1832
کنواری	-11.1832
▁ٹشو	-11.1832
▁استثن	-11.1841
▁مونرو	-11.1841
▁پیوس	-11.1843
ub	-11.1846
▁رومانی	-11.1854
▁ورتھ	-11.1858
▁رال	-11.1862
▁جوہان	-11.1879
جدید	-11.1888
ٹیورٹ	-11.1901
▁تبصرے	-11.1903
1923	-11.1916
▁شپنگ	-11.1917
▁برکل	-11.1936
▁Ne	-11.1947
▁حریفوں	-11.1955
▁سرحدیں	-11.1958
▁تجاو	-11.1973
ائزر	-11.1975
▁ہارن	-11.1983
▁آذربائیجان	-11.2
▁پیتھوجین	-11.2
▁ٹووالو	-11.2
▁جمالیات	-11.2
▁ملبوس	-11.2
▁کلنٹن	-11.2
▁بیسیلیک	-11.2001
▁چائن	-11.2003
▁1916	-11.2005
▁غص	-11.2005
▁سیکٹر	-11.2006
▁1839	-11.201
▁امار	-11.2013
▁خور	-11.2016
▁کلید	-11.2021
▁عثمان	-11.2023
▁سیریل	-11.2028
▁پارش	-11.2031
300	-11.2046
پیٹ	-11.2052
کشش	-11.2056
▁کرائی	-11.2067
وگرافک	-11.2067
▁میسی	-11.2068
1901	-11.2068
▁تحفظات	-11.2075
▁کوالیفائی	-11.2076
ایف	-11.208
▁سیونگ	-11.2081
فارمیشن	-11.2094
▁To	-11.2097
ڈوس	-11.2105
be	-11.2108
1847	-11.211
1842	-11.211
▁ممالی	-11.2111
▁کریک	-11.212
ps	-11.2134
▁الیکٹر	-11.2144
chi	-11.2146
▁لوفتواف	-11.2172
▁جھوٹ	-11.2172
▁اوہائیو	-11.2172
گالیشیا	-11.2172
▁اسٹیبل	-11.2173
▁کھیت	-11.2173
▁پرنسپل	-11.2174
▁بوڑھ	-11.2175
▁ریڈیکل	-11.2176
▁کریٹاسی	-11.2179
میرا	-11.218
▁1836	-11.2182
▁سواری	-11.2184
▁برادر	-11.2192
▁رویہ	-11.2192
▁گیٹس	-11.2195
▁نعرہ	-11.22
▁ٹرنر	-11.2208
und	-11.2216
▁جیٹ	-11.2226
▁عراقی	-11.2235
سلر	-11.224
▁سنک	-11.2253
الیا	-11.2262
▁ٹونی	-11.2262
com	-11.2264
▁Li	-11.2268
▁ٹریس	-11.2279
وگو	-11.2281
ڈونگ	-11.2284
سمار	-11.2299
▁پگ	-11.2303
-5	-11.2305
ژو	-11.2311
الٹی	-11.232
1810	-11.2321
▁ہماری	-11.2328
تاؤ	-11.233
all	-11.2332
▁نیش	-11.2333
وع	-11.2341
-13	-11.2343
×	-11.2348
▁امتزاج	-11.2348
▁تقلید	-11.2348
▁جھلی	-11.2348
▁فتوح	-11.2348
▁فریکوئنسی	-11.2348
▁مہاکاوی	-11.2348
▁ٹرانسکرپشن	-11.2348
▁البلد	-11.2348
▁سفیر	-11.2348
▁اسپیشل	-11.2348
▁ٹھیک	-11.2348
1882	-11.2348
▁پولرائزیشن	-11.2348
▁کیوبسٹ	-11.2348
▁ایکسچینج	-11.2348
▁انتونیو	-11.235
▁اسٹڈیز	-11.235
▁سکندر	-11.235
▁عبدال	-11.2351
▁مکانی	-11.2351
ٹرومن	-11.2353
▁نیلسن	-11.2355
ical	-11.2358
▁پاتھ	-11.2361
▁ویٹو	-11.2363
▁متغیرات	-11.2367
ڈورف	-11.237
bu	-11.2372
▁جناز	-11.2372
▁کھوج	-11.2374
▁انرج	-11.2391
▁بیگ	-11.2409
وڈیو	-11.2422
▁پیشرو	-11.2423
1878	-11.2444
ویڈیو	-11.2449
der	-11.2454
ریئرز	-11.2464
▁ٹاک	-11.2481
راسک	-11.2484
نگزی	-11.2496
▁اسٹارٹ	-11.2501
▁افسرد	-11.2504
tr	-11.2508
میٹک	-11.251
ئیم	-11.2511
▁(14	-11.2511
lin	-11.2517
▁ابھرت	-11.2519
▁سونپ	-11.2519
ε	-11.2526
▁انٹرپرائز	-11.2526
▁زرخیز	-11.2526
▁یونیفارم	-11.2526
▁ہاضم	-11.2526
▁چھلانگ	-11.2526
▁کچل	-11.2526
▁بوہیمی	-11.2526
▁پورٹیبل	-11.2527
▁کپتان	-11.2527
ٹریاسک	-11.2527
light	-11.2527
▁مجسٹریٹ	-11.2527
▁ہمسای	-11.2527
▁رسول	-11.2531
▁1935	-11.2532
▁پتیوں	-11.2534
▁صفحات	-11.2543
▁لیکچرز	-11.2545
▁قبولیت	-11.2548
▁لہج	-11.2555
ینجمن	-11.2565
▁نبی	-11.2566
▁ہیگل	-11.2584
ولیج	-11.2587
▁راز	-11.259
مورا	-11.2607
▁صوفی	-11.2607
راض	-11.2614
▁چھپا	-11.2623
▁ڈریک	-11.2623
▁مہر	-11.2628
▁امیج	-11.2641
▁گاہیں	-11.265
▁گلڈ	-11.2651
▁وارن	-11.2653
رٹیکس	-11.2673
روپ	-11.2674
مانی	-11.2675
▁مائن	-11.268
ect	-11.2684
▁In	-11.2687
▁Ba	-11.2689
▁نسلیں	-11.2694
▁فلائ	-11.2699
▁پخت	-11.2706
▁فاؤنڈ	-11.2707
æ	-11.2708
τ	-11.2708
ɛ	-11.2708
▁البانیہ	-11.2708
▁مبہم	-11.2708
▁جھک	-11.2708
▁لیجنڈ	-11.2708
▁کیٹالونی	-11.2708
▁کنٹینر	-11.2709
▁پروموشن	-11.2709
▁اسپرنگ	-11.2709
▁وائرلیس	-11.2709
▁ترسیل	-11.271
▁کرنل	-11.2711
▁بدام	-11.2712
پیرس	-11.2714
▁سبزیوں	-11.2714
▁فنانس	-11.2717
▁بروز	-11.2717
▁ریلیف	-11.2723
▁باغات	-11.2727
▁ڈرا	-11.2732
▁لسٹ	-11.2779
▁ڈپول	-11.2792
▁پیپر	-11.2809
▁پلانٹس	-11.2812
▁لٹو	-11.2817
ویگ	-11.2821
per	-11.2828
نیف	-11.2828
▁اربن	-11.2843
▁فلائی	-11.2862
ارتھ	-11.2865
▁مرسی	-11.2868
▁مزاحم	-11.2869
مینٹ	-11.2884
▁پراگ	-11.2887
▁گہرا	-11.289
▁اناطولیہ	-11.2893
▁انکارپوریٹ	-11.2893
▁ایڈمنسٹریشن	-11.2893
▁قفقاز	-11.2893
▁کفالت	-11.2893
▁1904	-11.2893
▁ذائقہ	-11.2893
▁رونالڈ	-11.2893
▁احیا	-11.2894
▁ڈینیوب	-11.2894
طلع	-11.2894
▁دوہری	-11.2895
▁لپیٹ	-11.2896
▁کمایا	-11.2896
▁ہیلینسٹ	-11.2896
▁پتے	-11.2896
▁کیپٹل	-11.2897
▁گوگل	-11.2898
▁یونگل	-11.2901
▁Ka	-11.2911
اسرار	-11.2921
▁اوبر	-11.2921
▁گند	-11.2927
go	-11.2931
▁فنکشنل	-11.2932
ولٹ	-11.2934
چیسٹر	-11.2936
برن	-11.2936
▁غار	-11.2942
▁اسٹیم	-11.2942
موشن	-11.2943
wi	-11.2943
15،000	-11.2959
▁Va	-11.2959
▁پبلش	-11.296
▁خوشی	-11.2961
▁مہنگا	-11.2968
▁اکائیوں	-11.2978
▁لیوس	-11.2979
▁فلٹر	-11.2986
▁کلون	-11.299
▁فلک	-11.2996
▁صفر	-11.2998
▁(197	-11.3001
ڈکشن	-11.3002
▁گروو	-11.3007
▁ایپس	-11.301
▁سنگا	-11.301
فارم	-11.3018
▁کسٹم	-11.3019
▁ٹلس	-11.3032
lis	-11.3043
گال	-11.3056
اگرچہ	-11.3061
موجودہ	-11.3062
پوسٹل	-11.3064
سامان	-11.3065
سازی	-11.3067
op	-11.3074
▁تغیر	-11.3074
▁گلیشی	-11.3076
▁اسٹینل	-11.3081
▁انتھونی	-11.3082
▁نامکمل	-11.3082
▁گنبد	-11.3082
▁تھراپی	-11.3082
▁موزائیک	-11.3082
▁خزانہ	-11.3082
▁ڈیجیمون	-11.3083
▁رائفل	-11.3083
▁ڈربی	-11.3085
▁ہیمبرگ	-11.3085
▁امیاد	-11.3087
▁نوکری	-11.3089
▁اتھانیسس	-11.309
▁سینسر	-11.309
▁نکات	-11.3098
▁طبقہ	-11.3102
▁پیار	-11.3108
▁چوہ	-11.311
▁اٹیک	-11.3111
▁ساکھ	-11.3112
▁وبا	-11.3118
▁ریب	-11.3121
▁انڈیز	-11.3121
ST	-11.3138
▁وارڈ	-11.3151
گول	-11.3154
ay	-11.3173
▁کامنز	-11.3187
▁پنج	-11.3189
▁تیرہو	-11.32
وزائی	-11.3203
▁ہنر	-11.3215
▁ایلیٹ	-11.3224
▁ویگا	-11.3229
▁چھو	-11.3246
▁تحف	-11.3274
▁ایمرجنسی	-11.3274
▁ڈھول	-11.3274
▁اسپانسر	-11.3274
▁جاسوسی	-11.3274
▁نااہل	-11.3274
▁شارلٹ	-11.3274
▁رجمنٹ	-11.3275
▁ڈائمنڈ	-11.3275
▁بیچلر	-11.3275
▁جادوگر	-11.3275
▁آوازیں	-11.3276
▁ہجے	-11.3276
▁منڈی	-11.3276
▁کوئنز	-11.3276
▁برنارڈ	-11.328
جرمن	-11.328
▁ثق	-11.328
▁1872	-11.3282
ایچ	-11.3284
▁ولسن	-11.3284
▁1849	-11.3284
▁1815	-11.3285
ھم	-11.3285
کانٹینینٹل	-11.3287
▁منع	-11.3291
▁آسکر	-11.3293
▁انکوڈر	-11.3296
▁فیچر	-11.3297
سیئس	-11.3319
▁130	-11.3335
،500	-11.3336
▁چوک	-11.3339
▁ریجنٹ	-11.334
▁لڑاک	-11.3347
ris	-11.3348
▁بوائے	-11.3353
▁آرکیڈ	-11.3354
چیو	-11.3356
▁جمی	-11.3377
▁لینس	-11.339
▁کروم	-11.3396
▁لینن	-11.3405
یسٹا	-11.3406
▁موج	-11.3426
▁مذک	-11.3445
-8	-11.3451
ولوجسٹ	-11.347
بدسلوکی	-11.347
▁کھدائی	-11.347
▁ہوجائیں	-11.347
▁مراکش	-11.347
▁کارٹریج	-11.347
▁دبایا	-11.347
▁کمپریس	-11.3471
▁شبیہ	-11.3471
خلیفہ	-11.3471
پہر	-11.3472
CA	-11.3476
▁سجایا	-11.3478
▁اردن	-11.348
▁رومانس	-11.348
▁منچوری	-11.3482
▁خسر	-11.3483
▁آگسٹین	-11.3484
▁سویٹ	-11.3489
▁نوٹس	-11.3489
▁1400	-11.3491
▁چول	-11.35
▁سنائی	-11.3502
▁کمیونیکیشنز	-11.3503
رخانہ	-11.3509
ژ	-11.351
▁ہیرا	-11.3514
▁کمپوزر	-11.3514
▁ایگل	-11.3516
فوق	-11.352
▁مائنر	-11.352
▁صفات	-11.3529
▁حادثات	-11.3535
▁الگور	-11.3543
شکن	-11.3553
بود	-11.3562
ندر	-11.3564
ینڈر	-11.3575
بیل	-11.3577
▁تھور	-11.3596
▁(198	-11.3612
فع	-11.3616
▁Bo	-11.3618
▁زہریل	-11.3629
ٹیشن	-11.3631
▁چیس	-11.3663
EC	-11.3666
▁میگاواٹ	-11.367
▁پھیپھڑ	-11.367
ä	-11.367
▁خودکشی	-11.367
▁کاتالونی	-11.367
▁قسط	-11.367
▁سوترا	-11.3671
▁ناروے	-11.3671
▁بھوک	-11.3671
▁پیڈمونٹ	-11.3671
▁Twi	-11.3671
▁سامراجی	-11.3672
▁رجسٹریشن	-11.3673
▁ٹیرا	-11.3674
▁ہالینڈ	-11.3674
▁ڈریگن	-11.3674
▁مسخ	-11.3675
▁وِ	-11.3676
▁ٹوائل	-11.3676
▁کلائن	-11.3678
▁1915	-11.3678
▁ریپر	-11.3679
▁تکرار	-11.3679
لیوپول	-11.3683
▁اکیس	-11.3683
مشنریوں	-11.3689
▁پیج	-11.3689
▁ماؤس	-11.3689
▁شوگر	-11.3694
▁1820	-11.3695
▁گیارہ	-11.3697
گریٹ	-11.3706
ous	-11.3708
تھرو	-11.3719
▁گولف	-11.3724
لیٹس	-11.3728
▁ٹال	-11.3729
▁Po	-11.3732
ans	-11.3744
لمین	-11.3762
کیم	-11.3773
1833	-11.3785
ip	-11.3806
▁Sch	-11.3813
ment	-11.3822
▁ایٹر	-11.3824
ju	-11.3842
▁بخار	-11.3862
▁مماثل	-11.3864
ٹونک	-11.3865
لوگ	-11.3869
▁نیوکلی	-11.387
گفتگو	-11.3875
▁انکوائری	-11.3875
▁بیپٹسٹ	-11.3875
▁ہستی	-11.3875
▁وٹامن	-11.3875
▁اسپیکٹر	-11.3875
▁ٹاسک	-11.3876
▁ایبٹ	-11.3877
▁سیرامک	-11.3877
▁کیمرون	-11.3879
▁گب	-11.3883
▁پیٹرو	-11.3886
▁Le	-11.3886
1902	-11.3888
▁25،000	-11.3893
▁شفٹ	-11.3909
▁میٹرکس	-11.392
▁بروس	-11.3922
▁آپریٹر	-11.3929
▁ہنس	-11.393
▁بیلج	-11.3935
▁ورکنگ	-11.394
▁بارود	-11.394
بنیادی	-11.3942
▁بائیک	-11.3943
8،000	-11.3952
ella	-11.3958
▁اوب	-11.3958
▁گلے	-11.3969
▁بجات	-11.3974
▁Lo	-11.3983
▁ساشا	-11.3987
▁آپٹک	-11.4001
▁بیٹل	-11.4007
▁ایڈورڈز	-11.4015
1825	-11.4025
ny	-11.403
لبرٹ	-11.4031
▁اسٹیمپ	-11.4038
▁نماز	-11.4046
ble	-11.4056
▁میکرو	-11.4058
3.2	-11.4062
الدین	-11.4075
▁ہولڈ	-11.4078
ó	-11.4083
▁نظار	-11.4083
▁نوادرات	-11.4083
▁چوراہ	-11.4083
▁ڈیفالٹ	-11.4083
▁یونیسکو	-11.4083
ه	-11.4083
▁خسار	-11.4083
▁سراہا	-11.4083
▁تلوار	-11.4083
▁سمجھوت	-11.4083
▁سرکلر	-11.4083
▁گزارت	-11.4083
ناتھن	-11.4083
▁مزار	-11.4084
▁ڈیبیو	-11.4085
▁وکیل	-11.4085
▁ڈیویڈ	-11.4086
▁خواب	-11.4086
▁گوانگ	-11.4087
▁گڑھ	-11.4087
▁1905	-11.4088
▁واٹسن	-11.4089
▁پڑھت	-11.409
تفس	-11.4096
▁1600	-11.4096
▁انزائم	-11.4096
▁مرت	-11.41
▁تاثرات	-11.4103
▁چارٹس	-11.4105
▁ٹیمپل	-11.4108
▁1200	-11.4113
▁پلاٹین	-11.4114
▁گورڈ	-11.4117
▁Pr	-11.4117
▁ڈریم	-11.412
▁کھائی	-11.4124
1.9	-11.4125
▁1700	-11.4129
▁لیچ	-11.4141
▁تانگ	-11.4144
▁سبھی	-11.4145
▁مرغیوں	-11.4153
▁ڈینیئ	-11.4156
▁لیتی	-11.4158
▁مورفی	-11.4161
جیانگ	-11.4169
ten	-11.4176
▁بابل	-11.4178
▁پیکٹ	-11.418
▁لور	-11.418
ڈیسن	-11.4183
▁سازو	-11.4192
▁پاول	-11.4196
راث	-11.4202
▁ٹنگسٹ	-11.4203
فورٹ	-11.4205
fa	-11.4213
▁منزلہ	-11.4215
▁ویرا	-11.4228
چرڈ	-11.4233
son	-11.4249
▁مشیل	-11.4255
جتنا	-11.4275
▁سوچت	-11.4277
▁خادم	-11.4288
بولا	-11.4294
▁طحالب	-11.4296
▁چیواہوا	-11.4296
▁یوٹریچٹ	-11.4296
▁سپانسر	-11.4296
▁شلاچ	-11.4296
▁مترجم	-11.4296
▁گالیشین	-11.4296
▁آرنلڈ	-11.4296
▁مبارک	-11.4296
▁خاکہ	-11.4296
▁سیمینار	-11.4296
▁محت	-11.4296
▁کاشتکاری	-11.4296
▁آٹوموبائل	-11.4297
▁کروشین	-11.4297
سٹون	-11.4297
▁ٹائیگر	-11.4297
▁انتون	-11.4297
▁مرجان	-11.4298
▁فلاح	-11.4299
عید	-11.4299
▁ضمیر	-11.43
▁وینزو	-11.43
▁استاد	-11.4301
▁باندھ	-11.4301
▁نسبیت	-11.4303
▁السیس	-11.4305
▁بارڈر	-11.4306
▁ہومر	-11.4306
▁جادو	-11.4312
حض	-11.4314
yl	-11.4318
▁Ha	-11.4322
اگون	-11.4325
▁کریول	-11.4326
▁کریگ	-11.4339
ium	-11.4342
▁فائی	-11.4342
▁دیکھنا	-11.4347
▁بجان	-11.4353
▁ریشم	-11.4355
▁جدیدیت	-11.4365
▁ٹیبلٹ	-11.4372
گوٹا	-11.4376
▁بھیجت	-11.4376
▁ریپبلکنز	-11.438
▁سیدھ	-11.4385
▁کیرول	-11.4396
بذ	-11.4397
1776	-11.4408
ورج	-11.4411
پتہ	-11.4413
▁ربی	-11.442
سیلٹک	-11.4425
تناسب	-11.4429
gra	-11.4431
وریج	-11.4441
za	-11.4448
-11	-11.4467
ٹونین	-11.4467
▁ہولی	-11.4473
ریئر	-11.4473
منڈو	-11.4489
▁شرٹ	-11.4492
▁ماریان	-11.4503
ینٹل	-11.4505
=	-11.4513
▁کرسٹوفر	-11.4513
▁ہولوکاسٹ	-11.4513
▁شعاع	-11.4513
▁گزرگاہ	-11.4513
▁نوشتہ	-11.4513
کھنڈ	-11.4513
▁ڈونلڈ	-11.4513
▁امیونولوج	-11.4513
▁ہبسبرگ	-11.4513
▁کھایا	-11.4514
▁مائکروفون	-11.4514
▁پیٹریاٹ	-11.4515
▁کشمیر	-11.4515
▁ٹوالو	-11.4516
▁لٹکا	-11.4516
حفاظتی	-11.4517
▁تجزیاتی	-11.4518
▁جیومیٹر	-11.4519
▁پچاس	-11.452
▁امینو	-11.4521
▁ٹوکری	-11.4524
ix	-11.4527
▁ریوڑ	-11.4527
دود	-11.4532
▁235	-11.4535
▁3.0	-11.4535
▁1.1	-11.4537
▁2500	-11.4537
▁128	-11.4543
▁مینڈیٹ	-11.4546
uk	-11.4548
▁ملایا	-11.4555
▁کلسٹر	-11.4559
▁اوٹو	-11.4576
▁پاؤ	-11.4581
▁تنہا	-11.4582
▁ویلیم	-11.4584
وفیل	-11.4594
▁ٹائل	-11.4603
▁پائ	-11.4604
▁پہن	-11.4604
▁یوٹا	-11.4605
▁کاغذات	-11.4606
الیف	-11.4607
1863	-11.4616
▁ہیوی	-11.4626
▁لونگ	-11.4654
▁So	-11.466
▁ڈیانا	-11.466
لائیڈ	-11.4669
▁ملاح	-11.4679
▁کریٹ	-11.4681
▁لیسٹ	-11.4681
▁لڑ	-11.4682
▁ڈیفی	-11.4686
▁ٹرائل	-11.4687
▁بھاگن	-11.469
▁61	-11.4692
cul	-11.4696
▁گلوب	-11.4709
▁مالٹ	-11.4711
ائق	-11.4726
ty	-11.473
è	-11.4735
▁فرڈینینڈ	-11.4735
▁محنت	-11.4735
▁معاشرہ	-11.4735
▁چوڑائی	-11.4735
▁ہائبرڈ	-11.4735
معقول	-11.4735
▁تھنڈر	-11.4735
▁میتھیو	-11.4735
π	-11.4735
▁شیطان	-11.4735
▁معذور	-11.4735
▁ملحد	-11.4735
▁گزارے	-11.4735
▁سرجری	-11.4735
▁پیشکش	-11.4736
▁کمپاس	-11.4736
▁پیتل	-11.4737
▁گورنمنٹ	-11.4737
▁مہاجر	-11.4737
▁بٹالین	-11.4739
▁سیفٹی	-11.474
▁اندھیر	-11.474
Zn	-11.4741
▁نیچرل	-11.4741
▁عددی	-11.4745
▁الیکس	-11.475
▁رخ	-11.4751
تفری	-11.4751
▁دادی	-11.4752
▁شاپ	-11.4755
بھا	-11.4757
فکری	-11.477
مذاق	-11.4774
▁میپ	-11.4781
نڈوتھ	-11.4787
▁ایکویٹی	-11.479
▁گھن	-11.4796
▁پندرہ	-11.4812
▁Pe	-11.4818
▁پھیلان	-11.4849
▁بوئ	-11.4851
1789	-11.4855
▁ڈرل	-11.4855
فکسڈ	-11.4865
▁He	-11.4868
▁پروٹیک	-11.4871
▁آبادکار	-11.4871
▁لیمب	-11.4872
▁فوک	-11.4878
▁انتہا	-11.4889
لیتھک	-11.4892
▁گایا	-11.49
▁ٹیکسٹ	-11.4905
°	-11.4905
کبھی	-11.4906
▁زار	-11.4931
▁نواز	-11.4935
we	-11.4936
▁شوقی	-11.4943
▁An	-11.4952
▁ٹرانسف	-11.4953
ο	-11.4962
ς	-11.4962
%	-11.4962
▁ابراہیم	-11.4962
▁اسماعیل	-11.4962
▁Ptolem	-11.4963
▁گارنیشن	-11.4963
▁اجرت	-11.4963
▁وژن	-11.4963
olog	-11.4963
▁بہادر	-11.4963
▁پرائیویٹ	-11.4963
▁چھڑی	-11.4963
یوحنا	-11.4963
▁منتظمین	-11.4963
▁آریائی	-11.4964
5.2	-11.4965
▁بلوط	-11.4966
▁ہورہ	-11.4966
▁1906	-11.4967
▁گود	-11.4968
▁پرسنل	-11.4969
▁کنندگان	-11.4969
▁مورگن	-11.4969
▁1838	-11.4969
▁ہارپر	-11.4971
زگار	-11.4972
▁Ar	-11.4976
▁بخارات	-11.4977
چار	-11.4978
▁جنکشن	-11.4982
▁کندہ	-11.4987
▁پلگ	-11.499
ٹالین	-11.4995
▁مرح	-11.4998
▁آنکھیں	-11.5
▁خیمہ	-11.5001
rn	-11.5002
▁سنجیدہ	-11.5005
4.7	-11.5008
▁الٹا	-11.5012
▁کمیونز	-11.5022
ez	-11.5026
▁بندش	-11.5034
▁رہنا	-11.5039
▁ریان	-11.5046
▁میرٹ	-11.5054
▁قلی	-11.5059
چیمپ	-11.5061
▁سنٹر	-11.5064
▁برٹن	-11.5066
فیلیا	-11.5075
tive	-11.5075
1874	-11.5076
1896	-11.5078
2.6	-11.5079
▁دلائ	-11.508
2.4	-11.5082
▁ٹوپی	-11.5083
1750	-11.5087
▁اکائی	-11.5094
تدل	-11.5094
مردانہ	-11.5104
ov	-11.5107
1858	-11.5109
▁امب	-11.5113
نجر	-11.5128
▁کمپن	-11.5131
ther	-11.514
▁پلائ	-11.5144
مبرٹ	-11.5145
▁Ju	-11.515
▁ایڈون	-11.5163
جان	-11.5177
وینٹی	-11.518
▁چڑھائ	-11.518
پولیس	-11.5184
▁چودہ	-11.5195
ū	-11.5195
▁PAL	-11.5195
half	-11.5195
▁اوبلاست	-11.5195
▁اولمپیا	-11.5195
▁بصیرت	-11.5195
▁ذیابیطس	-11.5195
▁ڈگلس	-11.5195
▁نمٹا	-11.5195
▁قالین	-11.5195
▁نفیس	-11.5195
اہرہ	-11.5195
▁آرکیٹیکٹ	-11.5195
▁سنتھیس	-11.5195
▁نکولائ	-11.5195
▁ورجیل	-11.5195
▁آئک	-11.5196
CAR	-11.5196
igh	-11.5196
▁چالیس	-11.5197
▁جنریٹر	-11.5198
▁فرینڈ	-11.5198
▁فارورڈ	-11.5199
▁میگنیٹ	-11.5199
▁لگائے	-11.5199
▁1835	-11.5206
▁MP	-11.5207
▁1846	-11.5208
▁مفکر	-11.5209
▁گزین	-11.5215
اللہ	-11.5219
▁کہانیاں	-11.5228
▁Be	-11.5229
▁کسٹمر	-11.5234
▁لوکو	-11.5264
▁باتھ	-11.527
▁شیڈ	-11.5283
▁ماریو	-11.5306
وزوک	-11.5311
tal	-11.5315
▁ڈیسری	-11.5332
tas	-11.5334
▁کارلو	-11.5335
▁دکھان	-11.5342
▁ہومو	-11.5352
▁350	-11.5356
▁بوب	-11.5369
نہائی	-11.5409
نظر	-11.5412
▁قرب	-11.5417
ِ	-11.5423
سینڈر	-11.5425
ثیر	-11.5433
à	-11.5433
>	-11.5433
لوزیانا	-11.5433
▁استحقاق	-11.5433
▁استنبول	-11.5433
▁جھٹک	-11.5433
▁خرگوش	-11.5433
▁ولادیمیر	-11.5433
▁چرواہ	-11.5433
▁کولوراڈو	-11.5433
▁رشوت	-11.5433
▁سپاہی	-11.5433
▁وایلیٹ	-11.5433
▁ایڈوانس	-11.5433
▁مصور	-11.5433
▁USB	-11.5433
▁دخل	-11.5433
▁پارتھین	-11.5433
زیورات	-11.5434
▁تیمور	-11.5434
عیش	-11.5436
▁بوٹیوں	-11.5437
▁مسوری	-11.5438
▁کزن	-11.544
▁1877	-11.5444
▁1821	-11.5444
▁سدر	-11.5446
▁1895	-11.5448
▁الفا	-11.5456
▁کمپوزیشن	-11.5459
سٹائل	-11.5462
ہلکا	-11.5462
▁اکیل	-11.5464
je	-11.5491
▁وکر	-11.5508
والڈ	-11.5511
▁شاک	-11.5517
ion	-11.5528
▁پلاس	-11.553
ریٹا	-11.5554
رولنگ	-11.5556
lan	-11.5557
▁132	-11.5566
▁پگھل	-11.5566
RE	-11.557
▁بوٹس	-11.5577
▁بدعنوان	-11.558
سیلا	-11.56
اندھی	-11.5604
▁پالپ	-11.5605
▁چڑھن	-11.5607
▁الما	-11.5611
▁بائٹ	-11.5615
ریگن	-11.5633
جید	-11.5634
▁انکوڈ	-11.5638
▁اپارٹمنٹ	-11.5652
▁تعمی	-11.5661
▁امتحان	-11.5664
▁لچک	-11.5675
ṣ	-11.5677
میٹابولزم	-11.5677
▁تبلیغ	-11.5677
▁لوازمات	-11.5677
▁مصلوب	-11.5677
▁پھوٹ	-11.5677
▁چانسلر	-11.5677
▁کیٹلاگ	-11.5677
▁گھونسل	-11.5677
ö	-11.5677
▁افواہ	-11.5677
▁شاگرد	-11.5677
▁پڑی	-11.5677
▁برہمن	-11.5677
▁ژانگ	-11.5677
▁ایڈونچر	-11.5678
▁گوریلا	-11.5679
پینز	-11.5679
▁وِگ	-11.568
▁ڈپریشن	-11.5681
▁گالیسی	-11.5681
▁فولڈ	-11.5683
آبادیاتی	-11.5684
▁کردے	-11.5685
▁1889	-11.5687
▁خودکار	-11.5694
فرانسیسی	-11.5696
جنوبی	-11.5696
▁پالمر	-11.5697
ینٹین	-11.5698
تھرین	-11.5701
▁12،000	-11.5702
▁ملتوی	-11.5702
▁شرم	-11.5704
▁Car	-11.5709
▁آگئی	-11.5712
▁ابھرن	-11.5715
▁وینیل	-11.5716
ٹروف	-11.5717
▁فالٹ	-11.5721
پایا۔	-11.5725
▁زہریلا	-11.5729
▁ایڈنبر	-11.5731
-6	-11.5742
گھم	-11.5742
پیش	-11.5745
نسٹن	-11.5745
ٹولز	-11.5755
:00	-11.576
▁کنب	-11.5761
▁اڑا	-11.5764
▁لگاتا	-11.5766
▁بیٹھا	-11.5768
▁گیج	-11.5785
ger	-11.5786
▁پریمی	-11.5793
▁فرن	-11.5801
▁پام	-11.5806
▁مارکو	-11.581
▁ہاکین	-11.5815
▁فرانکو	-11.5817
▁فیکٹر	-11.5829
▁زخم	-11.583
▁ہیرس	-11.5833
▁بوم	-11.5841
▁فوٹ	-11.5853
▁Ga	-11.5855
▁عط	-11.5862
▁انتظا	-11.5909
222	-11.5919
ماؤتھ	-11.5923
▁Princ	-11.5927
▁الجزائر	-11.5927
▁جغرافیہ	-11.5927
▁مشغول	-11.5927
▁مونٹریال	-11.5927
▁وائکنگ	-11.5927
▁آبزرویٹری	-11.5927
▁ٹرانسفارمر	-11.5927
▁انجکشن	-11.5927
▁ٹیریٹری	-11.5927
▁تھیوڈور	-11.5927
▁رحم	-11.5927
▁موزارٹ	-11.5928
تلافی	-11.5928
▁سیڑھی	-11.5928
▁ٹرپل	-11.5928
▁ٹریپ	-11.593
ano	-11.5931
6.4	-11.5933
▁ڈیزل	-11.5934
▁چیخ	-11.5935
▁ہائپو	-11.5936
▁ڈراپ	-11.5938
▁1851	-11.5938
پتی	-11.594
▁1873	-11.5943
تھمپٹن	-11.5945
▁سولڈر	-11.5946
mes	-11.5946
▁شافٹ	-11.5948
▁چکن	-11.595
▁پرستار	-11.5953
▁اپالاچین	-11.5959
▁نکلنے	-11.5961
▁سلپ	-11.5965
▁50،000	-11.5966
مقدم	-11.5972
چانگ	-11.5982
▁یوگا	-11.5983
تشر	-11.5986
▁لاب	-11.5989
▁لوتھرن	-11.5992
▁پش	-11.5994
SE	-11.6016
▁گارڈین	-11.6021
▁پھیلت	-11.603
نیکو	-11.6045
روچ	-11.6054
▁Da	-11.6067
▁صوفیان	-11.6068
▁روبی	-11.607
▁بلوم	-11.6072
▁گریگ	-11.6072
پیلا	-11.6076
سلام	-11.6085
رنیل	-11.6093
▁لائ	-11.6109
▁قربان	-11.611
▁پکان	-11.6119
▁فائٹ	-11.6126
▁سنجید	-11.6139
OS	-11.6149
▁لیکچر	-11.616
AT	-11.6161
ɔ	-11.6183
ō	-11.6183
▁اپوسٹول	-11.6183
▁باویریا	-11.6183
▁جھگڑ	-11.6183
▁حاکم	-11.6183
▁سلنڈر	-11.6183
▁مترادف	-11.6183
▁ورچوئل	-11.6183
▁پروپیگنڈ	-11.6183
▁کاربوہائیڈریٹ	-11.6183
▁نمائندگان	-11.6183
▁نقد	-11.6183
▁چیلسی	-11.6184
▁بھیڑیا	-11.6184
▁ہمدرد	-11.6184
▁نازک	-11.6184
▁ضمیمہ	-11.6184
▁جرنیل	-11.6184
▁تفریق	-11.6184
▁پومپی	-11.6185
افوٹی	-11.6185
▁0.2	-11.6185
▁نیورونز	-11.6186
▁موٹاپ	-11.6186
▁فاسٹ	-11.6186
▁Am	-11.6189
▁نثر	-11.6189
▁مشروبات	-11.6191
▁1894	-11.6192
▁بلانک	-11.6192
مپائر	-11.6195
▁1866	-11.6195
▁1892	-11.6198
▁یورین	-11.6199
▁Ta	-11.62
IX	-11.6201
▁گھڑیاں	-11.6203
▁کھینچنے	-11.6211
▁فائن	-11.6217
▁معاوض	-11.6219
▁ویگن	-11.6233
▁منائی	-11.6236
▁کینال	-11.624
ڈینش	-11.6242
▁سلاٹ	-11.6243
ساکی	-11.6256
اکثر	-11.6263
▁ناسا	-11.6263
▁ڈب	-11.6278
فرین	-11.6305
ائیکاٹ	-11.6315
▁بیڑ	-11.6354
انڈور	-11.6357
ish	-11.6367
▁3000	-11.6386
▁براڈکاسٹر	-11.6392
BA	-11.6402
▁پہل	-11.6424
ٹرینڈ	-11.643
چھٹا	-11.6436
ستند	-11.6447
ɑ	-11.6447
▁جھڑپ	-11.6447
&	-11.6447
bird	-11.6447
í	-11.6447
ά	-11.6447
▁ریگولیشن	-11.6447
▁میسوپوٹیمیا	-11.6447
▁ٹربیون	-11.6447
▁ڈائیوسیس	-11.6447
▁گھلنشیل	-11.6447
▁افسوس	-11.6447
ocking	-11.6447
▁بدوش	-11.6447
▁شفاف	-11.6447
▁تیونس	-11.6447
▁صحافت	-11.6447
▁ایڈولف	-11.6447
▁بکھر	-11.6447
▁اراگون	-11.6447
▁انسولین	-11.6447
▁پیٹرولیم	-11.6447
▁غدود	-11.6447
▁فلمایا	-11.6447
▁پٹرولیم	-11.6448
▁اسمگل	-11.6448
▁سلائیڈ	-11.645
▁پیپسی	-11.645
▁نارمنڈی	-11.6451
▁لتھوانیائی	-11.6454
▁اولیگ	-11.6454
▁کاریگر	-11.6465
▁مونٹگ	-11.6465
▁انڈیانا	-11.6469
▁سٹرنگ	-11.6472
▁پھیلایا	-11.6472
▁ٹرمپ	-11.6476
▁سلیم	-11.6479
▁گریس	-11.6488
▁ویمن	-11.6502
1.6	-11.6503
▁تردید	-11.6507
▁اسٹینڈ	-11.6521
ونڈو	-11.6522
▁گیلو	-11.6524
gen	-11.6526
MA	-11.6529
3.6	-11.6546
لیکٹ	-11.6547
▁نشی	-11.6571
▁پروٹون	-11.6571
تما	-11.6572
لیٹن	-11.6581
125	-11.6585
▁ڈورک	-11.6595
ies	-11.6597
مکاسٹ	-11.6598
den	-11.6609
یلسن	-11.6613
nz	-11.6617
▁ڈونڈ	-11.6636
▁روب	-11.666
▁اٹھارہو	-11.6662
▁رینی	-11.6674
IC	-11.6689
tro	-11.6707
▁Ho	-11.6714
▁جینیف	-11.6714
ڈوکس	-11.6715
ُ	-11.6717
▁انحراف	-11.6717
▁زیادتی	-11.6717
▁چیکوسلوواکیہ	-11.6717
▁خالق	-11.6717
▁بھیڑیوں	-11.6717
▁کنکریٹ	-11.6717
▁چچا	-11.6717
▁سیگمنٹ	-11.6717
میونخ	-11.6717
▁ریچھ	-11.6717
▁کیوبیک	-11.6717
▁دھوپ	-11.6717
لوقا	-11.6718
▁پویلین	-11.6718
▁سٹرلنگ	-11.6718
▁Kill	-11.6719
▁پختگی	-11.672
نٹینڈو	-11.6721
▁ناراضگی	-11.6722
▁1926	-11.6726
▁1824	-11.6729
▁گلوکو	-11.6731
▁1788	-11.6731
▁وولف	-11.6733
▁قاتل	-11.6735
▁300،000	-11.6736
▁نیگرو	-11.6737
▁لگانا	-11.674
▁ڈوبنے	-11.6744
▁اپارٹمنٹس	-11.6745
▁چیئر	-11.6745
الگو	-11.6745
▁روتھ	-11.6749
▁پیلیو	-11.6752
روکی	-11.6755
▁سانپ	-11.6786
▁پاش	-11.6797
چسٹر	-11.6798
مشکلات	-11.6812
کلف	-11.6814
▁شاٹ	-11.6823
ازار	-11.6829
SC	-11.6831
▁کھان	-11.6833
▁Con	-11.684
▁110	-11.6842
▁چالو	-11.6854
پروشین	-11.6854
یورپی	-11.6857
قومی	-11.6861
AA	-11.6876
▁اسپائ	-11.6877
▁ارون	-11.6895
▁ویلیو	-11.6922
1879	-11.6952
▁(194	-11.6975
▁لوب	-11.6988
▁رفت	-11.6992
ven	-11.6994
ω	-11.6995
▁بینیڈکٹ	-11.6995
▁تخریب	-11.6995
▁فینوٹائپ	-11.6995
▁قازقستان	-11.6995
▁موگادیش	-11.6995
▁وائسرائ	-11.6995
▁آمریت	-11.6995
▁موومنٹ	-11.6995
▁تھراواڈ	-11.6995
▁موصل	-11.6995
▁اناٹومی	-11.6995
▁اوورلیپ	-11.6995
▁سرٹیفکیٹ	-11.6995
▁میگوئل	-11.6995
▁لزبن	-11.6995
▁لکھنا	-11.6999
▁خوشبو	-11.7
▁جلوس	-11.7
▁ہیملٹن	-11.7001
▁مانیٹر	-11.7001
▁مینوئل	-11.7001
▁نورڈ	-11.7003
▁اموی	-11.7008
وئٹ	-11.701
▁1856	-11.701
▁فلوٹ	-11.7013
▁گائے	-11.7016
▁فرشتہ	-11.7017
▁نینو	-11.7025
▁3.1	-11.7031
▁عمو	-11.7032
▁کلرک	-11.7033
▁فیوڈ	-11.7034
▁فائیو	-11.7035
▁ڈش	-11.7036
▁Te	-11.7051
بیانات	-11.7052
▁کنڈیشنر	-11.7057
▁فارسٹ	-11.7064
▁چیری	-11.7076
▁نیکول	-11.7078
▁گلا	-11.7078
▁جمناسٹ	-11.7083
▁ڈوئ	-11.7085
1884	-11.7086
▁حب	-11.7097
ius	-11.7097
OR	-11.711
کریٹک	-11.7113
van	-11.7113
4.5	-11.7116
کھائے	-11.7118
1829	-11.7122
▁روبن	-11.7123
▁لکھ	-11.7153
کوسٹا	-11.7161
1814	-11.7161
زیادہ	-11.7169
یونانی	-11.717
1790	-11.7172
بہت	-11.7173
ide	-11.7182
▁طل	-11.7186
▁سمو	-11.7209
cor	-11.7218
▁سلم	-11.7231
▁گیلگ	-11.7234
▁خیم	-11.7234
ارینا	-11.7248
▁تھورنگی	-11.725
▁بوسنیا	-11.7255
▁1080	-11.7256
بست	-11.7263
▁معدنی	-11.7268
بنائے	-11.7274
▁اسکواڈ	-11.728
θ	-11.728
έ	-11.728
▁طاعون	-11.728
▁پریزنٹیشن	-11.728
▁چاہئیں	-11.728
حشرات	-11.728
▁برمنگھم	-11.728
▁سلووینیا	-11.728
▁کاربونیٹ	-11.728
▁دہرایا	-11.728
▁مقبر	-11.728
▁پروفائل	-11.728
▁ذہانت	-11.7281
▁ضرب	-11.7281
▁چراغ	-11.7281
▁گزارن	-11.7281
▁پینتھر	-11.7281
▁الجبر	-11.7281
▁گودام	-11.7281
▁ارنسٹ	-11.7282
▁اینٹیگون	-11.7282
▁صدور	-11.7283
▁آئیڈیلز	-11.7284
▁چالک	-11.7286
▁لیونارڈ	-11.7287
▁لنگر	-11.729
▁1644	-11.729
▁1812	-11.7293
▁نورڈک	-11.7295
▁امتحانات	-11.7295
▁1868	-11.7297
▁فیکٹ	-11.73
گارٹن	-11.7301
معین	-11.7315
▁چلانا	-11.732
▁شیلف	-11.7325
▁Br	-11.7326
▁ڈریس	-11.7328
▁ٹورنٹ	-11.7337
▁سرکس	-11.7345
1.7	-11.7346
▁ریپڈ	-11.7348
▁سومر	-11.7361
نوکس	-11.7362
▁ٹارک	-11.7367
▁بڑھات	-11.7382
▁ڈینیل	-11.7384
aj	-11.7388
مالیہ	-11.7403
▁رج	-11.7409
1888	-11.7413
▁پہنچات	-11.7416
شوٹنگ	-11.7417
گنیٹ	-11.7417
▁لڑت	-11.7418
ڈوچ	-11.7442
▁وارنٹ	-11.7453
▁ٹوپ	-11.7466
تصادم	-11.7487
مشق	-11.749
پرتگالی	-11.7491
(	-11.7492
لیموس	-11.7503
▁ریمس	-11.7516
▁شیڈو	-11.7549
بینڈ	-11.7565
μ	-11.7574
▁Athanasius	-11.7575
▁اعدادوشمار	-11.7575
▁بیوروکریسی	-11.7575
▁پروفیشنل	-11.7575
▁پھیری	-11.7575
▁ڈھانپ	-11.7575
▁بھتیج	-11.7575
▁حفظ	-11.7575
▁قطار	-11.7575
▁لیکسنگٹن	-11.7575
▁سیکورٹی	-11.7575
▁مداح	-11.7575
▁گپتا	-11.7575
▁حویلی	-11.7575
▁یوکاریوٹ	-11.7575
▁الائنس	-11.7575
▁فزیکل	-11.7575
▁گڑیا	-11.7575
▁تدریس	-11.7575
▁عظم	-11.7575
▁کبوتر	-11.7575
ος	-11.7575
▁لاحق	-11.7575
▁مضمر	-11.7575
▁حرب	-11.7575
،600	-11.7575
▁چادر	-11.7576
▁وحی	-11.7577
▁شریع	-11.7581
▁کردیں	-11.7584
▁1869	-11.7588
▁1845	-11.7588
▁بلیئر	-11.7594
▁لیبیائی	-11.7601
▁Go	-11.7623
▁نانو	-11.7627
3.7	-11.765
چمکدار	-11.7652
▁برش	-11.767
▁انگریز	-11.7676
ڈیاز	-11.7714
مرسیٹ	-11.7727
▁XII	-11.7738
▁سکھان	-11.7744
یگون	-11.7756
2.1	-11.7771
▁Gu	-11.7805
عظیم	-11.7825
کچھ	-11.7825
▁نعر	-11.7829
دھا	-11.7832
خبریں	-11.7843
▁رائٹر	-11.7855
،000،000	-11.7864
▁ٹیکنو	-11.7873
▁برینڈنبرگ	-11.7878
▁آبپاشی	-11.7878
▁اونٹاریو	-11.7878
▁تحائف	-11.7878
▁تقدیر	-11.7878
▁سنسرشپ	-11.7878
▁دہندہ	-11.7878
▁ہاؤنڈ	-11.7878
▁سترہ	-11.7878
▁پروٹوٹائپ	-11.7878
▁فلیش	-11.7878
▁فلوروسین	-11.7878
▁کنزرویٹری	-11.7878
▁نیوکلیئس	-11.7878
وگاوا	-11.7879
▁جواہر	-11.7879
▁ایڈمنڈ	-11.788
▁رگڑ	-11.7881
▁ناریل	-11.7881
▁ویکسینیشن	-11.7881
▁فلینڈر	-11.7882
▁فیلکس	-11.7883
▁ڈارٹ	-11.7883
▁کھوئے	-11.7883
TF	-11.7884
▁حسن	-11.7885
▁پورٹسماؤ	-11.7887
▁پولینیش	-11.7888
▁گشت	-11.7888
▁کیڑا	-11.7889
▁پہنایا	-11.7891
▁1899	-11.7894
▁اسپارٹ	-11.7894
▁انٹیگریٹ	-11.7894
▁غدار	-11.7899
▁فیڈرلسٹ	-11.7911
▁آکٹ	-11.7914
▁60،000	-11.7915
▁Ra	-11.7923
▁ربن	-11.7925
▁پروسیس	-11.7932
رالڈ	-11.7932
4.6	-11.7984
اعلیٰ	-11.8001
▁بوئنگ	-11.8004
روڈو	-11.8006
ونسٹن	-11.8033
مچھلیوں	-11.805
▁مرغی	-11.8085
▁Je	-11.8099
▁عص	-11.81
shi	-11.8114
▁نمی	-11.8133
پیڈو	-11.8143
RO	-11.8148
▁اترن	-11.815
4.8	-11.8152
▁سلا	-11.8165
سنسکرت	-11.8168
▁سنبھالت	-11.8173
▁مائک	-11.8178
ity	-11.8184
q	-11.8188
▁ٹپ	-11.8189
▁سرٹیف	-11.819
▁آزمائش	-11.819
▁مائکروجنزم	-11.819
▁پروجیکشن	-11.819
▁پینگوئن	-11.819
▁ڈپلوم	-11.819
а	-11.819
▁اغوا	-11.819
▁اقتباس	-11.819
▁میتھین	-11.819
▁رئیل	-11.819
▁پیلیولیتھک	-11.819
▁سکاؤٹ	-11.819
▁مٹھی	-11.819
▁چیروکی	-11.8191
▁کھاد	-11.8191
▁بارٹلم	-11.8192
▁الفونس	-11.8192
▁سومرسٹ	-11.8194
▁اسٹروک	-11.8195
▁جگر	-11.8196
▁پرائس	-11.8196
▁کلوروف	-11.8202
▁1843	-11.8205
los	-11.8208
▁ٹریول	-11.8209
2.3	-11.8211
▁2.2	-11.8217
▁ٹیٹرا	-11.8223
▁لبر	-11.8224
▁افیو	-11.824
▁سکریپ	-11.8254
3.4	-11.8267
▁کینڈی	-11.8269
OK	-11.8272
سپیئر	-11.8274
یومر	-11.8282
▁سجا	-11.8285
فارمز	-11.8294
Cu	-11.8327
fer	-11.8328
نہوا	-11.8332
ضابطہ	-11.834
Si	-11.8384
▁اثاث	-11.8408
1795	-11.8414
rist	-11.8414
▁ٹویٹ	-11.8425
زید	-11.8438
▁کمپوز	-11.8439
نیکا	-11.8454
bit	-11.8463
▁غلب	-11.8465
▁سائیک	-11.8486
▁ریپبلک	-11.8497
▁سفار	-11.8497
▁انٹرسٹی	-11.8497
جاگ	-11.8505
4.0	-11.8512
ı	-11.8513
▁استعار	-11.8513
▁تماشائی	-11.8513
▁زنجیر	-11.8513
▁سیکریٹری	-11.8513
▁ٹھہرایا	-11.8513
▁پراپرٹی	-11.8513
▁پریکٹیشنر	-11.8513
▁باورچی	-11.8513
▁رینڈرنگ	-11.8513
▁آلودہ	-11.8513
▁سیئول	-11.8513
▁آمیز	-11.8513
▁پکاسو	-11.8513
ARA	-11.8513
▁افریک	-11.8514
▁کینٹرب	-11.8515
▁ویمبل	-11.8515
▁چاہیے	-11.8516
▁مشتق	-11.8516
▁کنگڈم	-11.8517
▁یانکی	-11.8518
▁اڑایا	-11.852
▁دفع	-11.8521
▁نائیج	-11.8524
▁1832	-11.8524
▁1862	-11.8525
▁اسابیل	-11.8526
▁1885	-11.8529
▁لبرٹی	-11.8531
▁1864	-11.8534
▁یوجین	-11.8537
▁اٹار	-11.8555
▁ایجنڈ	-11.8556
▁ٹسک	-11.8563
▁ٹارٹ	-11.8573
ٹیریا	-11.8575
نیئر	-11.8582
9.5	-11.8591
▁دھون	-11.8591
▁ٹمپ	-11.8598
▁براک	-11.8615
▁برادران	-11.8626
▁دکھا	-11.8628
▁اڑان	-11.8686
▁ڈاگ	-11.8699
▁باؤر	-11.8706
anti	-11.875
1834	-11.8753
AG	-11.8771
انزا	-11.8787
▁فونوگراف	-11.8798
زائم	-11.8831
دھو	-11.8835
▁معاو	-11.8839
δ	-11.8846
γ	-11.8846
سلوواکیہ	-11.8846
▁انتقام	-11.8846
▁راجپوت	-11.8846
▁فاسفورس	-11.8846
▁مشروط	-11.8846
▁ڈرائنگ	-11.8846
▁کھوپڑی	-11.8846
▁ہائیڈرائڈ	-11.8846
Cubs	-11.8846
▁ساردین	-11.8846
▁کرسکیں	-11.8846
,600	-11.8846
▁الساس	-11.8847
دھرما	-11.8847
▁زیجیانگ	-11.8847
▁کمرشل	-11.8848
▁مائر	-11.8851
▁1831	-11.8855
▁اسٹریپ	-11.8855
▁کورپس	-11.8856
▁سزاؤں	-11.8858
چینج	-11.8858
▁1897	-11.8858
▁Com	-11.8859
میگنیٹس	-11.8863
▁1791	-11.8867
▁چھتری	-11.8867
▁پیرینی	-11.8873
▁لیمل	-11.8882
سرچ	-11.8887
▁سامرا	-11.8894
ہسپانوی	-11.8897
برطانوی	-11.8897
وسکوپ	-11.8903
108	-11.8915
سیاہ	-11.8916
▁پینسل	-11.8921
▁اسٹوک	-11.8925
،200	-11.8946
▁اسپیر	-11.9004
▁دھماک	-11.9009
▁فولی	-11.9016
1822	-11.9028
1807	-11.9043
1758	-11.9049
▁بوائ	-11.908
▁ہارل	-11.9149
▁محب	-11.918
▁MPEG	-11.9191
▁ازبکستان	-11.9191
▁اسکاؤٹ	-11.9191
▁انڈپینڈنٹ	-11.9191
▁تلچھٹ	-11.9191
▁سلواڈور	-11.9191
▁فاسفیٹ	-11.9191
▁لومبارڈ	-11.9191
▁گھوڑسواری	-11.9191
براسیلیا	-11.9191
▁ڈایناسور	-11.9191
▁عسکری	-11.9191
▁فرینکفرٹ	-11.9191
▁مڈویسٹ	-11.9191
رابنسن	-11.9191
▁دلدل	-11.9191
▁چامورو	-11.9191
▁پیرامیٹر	-11.9191
▁عیب	-11.9191
▁ٹیکٹونک	-11.9191
▁جواریز	-11.9192
▁پولیچیٹ	-11.9192
▁فینٹاس	-11.9192
▁عزت	-11.9192
▁0.7	-11.9193
▁طنز	-11.9193
▁اسٹیڈ	-11.9193
▁ژونگ	-11.9194
▁آرمز	-11.9194
▁لیبنی	-11.9194
ریموٹ	-11.9195
▁چائے	-11.9195
▁پریشر	-11.9198
▁مندوب	-11.9201
▁1844	-11.9202
▁راہداری	-11.9204
▁بلٹز	-11.9204
▁پڑت	-11.9205
▁پونک	-11.9205
▁1887	-11.9206
BC	-11.9214
▁گونڈ	-11.9224
ٹارچ	-11.9236
▁کھات	-11.9245
land	-11.925
کلینک	-11.9251
پنیر	-11.9263
اختیار	-11.9281
7.9	-11.9321
7.4	-11.9327
لنڈن	-11.9341
▁بولون	-11.9356
ریگلی	-11.9387
3.8	-11.9413
680	-11.9427
▁حراست	-11.9451
ence	-11.9485
▁Ja	-11.9486
▁بدع	-11.9521
▁محم	-11.9542
▁incandescent	-11.9548
▁الیکٹرولائٹ	-11.9548
▁جاگیردار	-11.9548
▁رعایت	-11.9548
▁کھجور	-11.9548
ñ	-11.9548
ί	-11.9548
▁ٹرانزیکشن	-11.9548
▁رینالڈ	-11.9548
شکریہ	-11.9548
▁ستھرا	-11.9548
▁مائکرونیشی	-11.9548
▁العم	-11.9548
▁دھواں	-11.9548
▁کیرولنگین	-11.9548
ً	-11.9912
ة	-11.9918
ì	-11.9918
η	-12.0303
ό	-12.0303
ي	-12.0303
е	-12.0703
ś	-12.112
Ü	-12.112
۱	-12.2009
о	-12.2009
к	-12.2009
ê	-12.2485
ú	-12.2485
ṇ	-12.2485
σ	-12.2485
;	-12.2985
н	-12.2985
्	-12.3511
и	-12.3511
ç	-12.4067
ě	-12.4067
म	-12.4067
с	-12.4067
ա	-12.4655
۵	-12.4655
′	-12.4655
υ	-12.4655
Π	-12.528
р	-12.528
→	-12.528
َ	-12.528
$	-12.5637
~	-12.5947
â	-12.5947
漢	-12.5947
ē	-12.5947
۹	-12.6661
в	-12.6661
ǎ	-12.743
ّ	-12.743
š	-12.743
ύ	-12.743
字	-12.743
т	-12.743
星	-12.8264
ή	-12.8264
ध	-12.8264
ἀ	-12.8264
ξ	-12.9173
ß	-12.9173
ô	-12.9173
§	-12.9173
נ	-12.9173
ḥ	-12.9173
י	-12.9173
л	-12.9173
ו	-12.9173
я	-12.9173
Δ	-13.0173
у	-13.0173
β	-13.0173
ø	-13.0173
王	-13.0173
ώ	-13.0173
É	-13.0173
ר	-13.0173
大	-13.1284
ò	-13.1284
̃	-13.1284
ь	-13.1284
國	-13.1284
ْ	-13.1284
£	-13.151
м	-13.2534
·	-13.2534
ã	-13.2534
ć	-13.2534
ş	-13.2534
❤	-13.2534
喜	-13.2534
書	-13.2534
χ	-13.2534
й	-13.3962
西	-13.3962
ð	-13.3962
φ	-13.3962
ы	-13.3962
ה	-13.3962
子	-13.3962
支	-13.3962
ź	-13.3962
ת	-13.3963
ン	-13.3963
ְ	-13.3963
试	-13.5629
ス	-13.5629
ħ	-13.5629
ु	-13.5629
书	-13.5629
衛	-13.5629
å	-13.5629
Á	-13.5629
õ	-13.5629
ž	-13.5629
}	-13.5629
±	-13.5629
ł	-13.5629
أ	-13.5629
र	-13.5629
元	-13.5629
府	-13.5629
東	-13.5629
국	-13.5629
쟁	-13.5629
전	-13.5629
ק	-13.5629
リ	-13.5629
क	-13.7629
ख	-13.7629
陳	-13.7629
ʻ	-13.7629
ш	-13.7629
۴	-13.7629
军	-13.7629
民	-13.7629
ï	-13.7629
白	-13.7629
ד	-13.7629
ִ	-13.7629
建	-13.7629
方	-13.7629
都	-14.0129
唐	-14.0129
מ	-14.0129
剑	-14.0129
田	-14.0129
@	-14.0129
î	-14.0129
û	-14.0129
ك	-14.0129
京	-14.0129
¥	-14.0129
Õ	-14.0129
ù	-14.0129
đ	-14.0129
ğ	-14.0129
ʼ	-14.0129
Η	-14.0129
г	-14.0129
ٔ	-14.0129
۲	-14.0129
۶	-14.0129
Ṣ	-14.0129
丹	-14.0129
争	-14.0129
代	-14.0129
帥	-14.0129
戦	-14.0129
法	-14.0129
蕃	-14.0129
한	-14.0129
ŋ	-14.0129
ー	-14.0129
א	-14.0129
后	-14.0129
驗	-14.3462
验	-14.3462
ի	-14.3462
д	-14.3462
Β	-14.3462
Λ	-14.3462
ս	-14.3462
趙	-14.3462
韓	-14.3462
Ν	-14.3462
ý	-14.3462
þ	-14.3462
̀	-14.3462
Р	-14.3462
ּ	-14.3462
ى	-14.3462
ा	-14.3462
া	-14.3462
ῆ	-14.3462
り	-14.3462
タ	-14.3462
プ	-14.3462
五	-14.3462
入	-14.3462
区	-14.3462
南	-14.3462
发	-14.3462
吉	-14.3462
士	-14.3462
开	-14.3462
徒	-14.3462
戰	-14.3462
朝	-14.3462
爭	-14.3462
督	-14.3462
藏	-14.3462
過	-14.3462
방	-14.3462
장	-14.3462
조	-14.3462
해	-14.3462
話	-14.3463
话	-14.3463
ト	-14.3463
В	-14.3463
ж	-14.3463
Լ	-14.8462
Պ	-14.8462
կ	-14.8462
ր	-14.8462
业	-14.8462
产	-14.8462
新	-14.8462
高	-14.8462
Ô	-14.8462
ח	-14.8462
双	-14.8462
江	-14.8462
越	-14.8462
雙	-14.8462
교	-14.8462
楊	-14.8462
Ø	-14.8462
ą	-14.8462
ė	-14.8462
ę	-14.8462
œ	-14.8462
ơ	-14.8462
Ψ	-14.8462
ζ	-14.8462
К	-14.8462
з	-14.8462
ъ	-14.8462
բ	-14.8462
ֵ	-14.8462
ל	-14.8462
ـ	-14.8462
ٍ	-14.8462
ۂ	-14.8462
۷	-14.8462
۸	-14.8462
त	-14.8462
ल	-14.8462
ि	-14.8462
্	-14.8462
ố	-14.8462
ụ	-14.8462
ὸ	-14.8462
√	-14.8462
さ	-14.8462
ぶ	-14.8462
ら	-14.8462
イ	-14.8462
シ	-14.8462
レ	-14.8462
ロ	-14.8462
三	-14.8462
东	-14.8462
中	-14.8462
來	-14.8462
候	-14.8462
光	-14.8462
切	-14.8462
利	-14.8462
包	-14.8462
十	-14.8462
吐	-14.8462
基	-14.8462
夷	-14.8462
女	-14.8462
寧	-14.8462
将	-14.8462
師	-14.8462
平	-14.8462
張	-14.8462
征	-14.8462
後	-14.8462
持	-14.8462
按	-14.8462
政	-14.8462
族	-14.8462
有	-14.8462
校	-14.8462
案	-14.8462
武	-14.8462
浦	-14.8462
海	-14.8462
渣	-14.8462
番	-14.8462
知	-14.8462
腐	-14.8462
舍	-14.8462
親	-14.8462
讀	-14.8462
豆	-14.8462
針	-14.8462
隶	-14.8462
音	-14.8462
顯	-14.8462
도	-14.8462
Γ	-14.8463
Ē	-14.8463
۰	-14.8463
Φ	-14.8463
ַ	-14.8463
ָ	-14.8463
ׂ	-14.8463
ש	-14.8463
ส	-14.8463
น	-14.8463
ร	-14.8463
า	-14.8463
口	-14.8463
复	-14.8463
对	-14.8463
恢	-14.8463
灾	-14.8463
重	-14.8463
菩	-15.8383
红	-15.8384
紅	-15.8385
烏	-15.8386
斯	-15.8387
圖	-15.8388
П	-15.8389
̊	-15.839
Š	-15.8391
Ş	-15.8392
기	-15.8393
震	-15.8394
福	-15.8395
渤	-15.8396
泥	-15.8397
汶	-15.8398
术	-15.8399
技	-15.84
成	-15.8401
川	-15.8402
地	-15.8403
土	-15.8404
ミ	-15.8405
フ	-15.8406
コ	-15.8407
キ	-15.8408
ァ	-15.8409
ष	-15.841
ठ	-15.8411
إ	-15.8412
ψ	-15.8413
Æ	-15.8414
思	-15.8415
力	-15.8416
俄	-15.8417
צ	-15.8418
հ	-15.8419
̧	-15.842
́	-15.8421
ļ	-15.8422
Î	-15.8423
卫	-15.8424
⁄	-15.8425
द	-15.8426
ն	-15.8427
յ	-15.8428
Σ	-15.8429
Α	-15.843
ń	-15.8431
₹	-15.8432
Ś	-15.8433
{	-15.8434
ṭ	-15.8435
Ā	-15.8436
ë	-15.8437
Ö	-15.8438
铺	-15.8439
紫	-15.844
水	-15.8441
库	-15.8442
坪	-15.8443
•	-15.8444
Κ	-15.8445
Ż	-15.8446
›	-15.8447
İ	-15.8448
航	-15.8449
统	-15.845
系	-15.8451
斗	-15.8452
导	-15.8453
北	-15.8454
ῖ	-15.8455
Χ	-15.8456
<	-15.8457
۳	-15.8458
^	-15.8459
€	-15.846
_	-15.8461
#	-15.8462
仕	-15.8462
济	-15.8462
经	-15.8462
ċ	-15.8462
ġ	-15.8462
б	-15.8462
ז	-15.8462
ಶ	-15.8462
್	-15.8462
ṛ	-15.8462
ἐ	-15.8462
ク	-15.8462
伯	-15.8462
臣	-15.8462
豊	-15.8462
예	-15.8462
¡	-15.8462
丁	-15.8462
何	-15.8462
刘	-15.8462
印	-15.8462
妹	-15.8462
朱	-15.8462
绍	-15.8462
耶	-15.8462
蒲	-15.8462
逸	-15.8462
金	-15.8462
¢	-15.8462
Ó	-15.8462
ő	-15.8462
ɨ	-15.8462
Ε	-15.8462
А	-15.8462
Х	-15.8462
п	-15.8462
х	-15.8462
ч	-15.8462
ց	-15.8462
ם	-15.8462
פ	-15.8462
ः	-15.8462
ग	-15.8462
न	-15.8462
प	-15.8462
জ	-15.8462
প	-15.8462
ম	-15.8462
য	-15.8462
র	-15.8462
ল	-15.8462
স	-15.8462
ಚ	-15.8462
ಮ	-15.8462
ಿ	-15.8462
อ	-15.8462
ิ	-15.8462
ỉ	-15.8462
ồ	-15.8462
ờ	-15.8462
ὐ	-15.8462
ὶ	-15.8462
の	-15.8462
は	-15.8462
セ	-15.8462
ゼ	-15.8462
ダ	-15.8462
チ	-15.8462
パ	-15.8462
ャ	-15.8462
ラ	-15.8462
ル	-15.8462
ワ	-15.8462
上	-15.8462
下	-15.8462
主	-15.8462
义	-15.8462
事	-15.8462
仔	-15.8462
他	-15.8462
会	-15.8462
伝	-15.8462
侍	-15.8462
像	-15.8462
兵	-15.8462
凹	-15.8462
前	-15.8462
剧	-15.8462
叠	-15.8462
古	-15.8462
和	-15.8462
块	-15.8462
坤	-15.8462
城	-15.8462
堂	-15.8462
塊	-15.8462
変	-15.8462
天	-15.8462
奴	-15.8462
安	-15.8462
審	-15.8462
巡	-15.8462
帝	-15.8462
常	-15.8462
廷	-15.8462
忒	-15.8462
总	-15.8462
拼	-15.8462
提	-15.8462
撫	-15.8462
教	-15.8462
文	-15.8462
日	-15.8462
時	-15.8462
替	-15.8462
本	-15.8462
杭	-15.8462
松	-15.8462
様	-15.8462
比	-15.8462
泉	-15.8462
潮	-15.8462
片	-15.8462
特	-15.8462
理	-15.8462
用	-15.8462
甫	-15.8462
異	-15.8462
皇	-15.8462
社	-15.8462
秀	-15.8462
緑	-15.8462
緣	-15.8462
緩	-15.8462
義	-15.8462
興	-15.8462
船	-15.8462
良	-15.8462
苏	-15.8462
苗	-15.8462
草	-15.8462
萨	-15.8462
薩	-15.8462
虫	-15.8462
蝶	-15.8462
表	-15.8462
覆	-15.8462
見	-15.8462
言	-15.8462
説	-15.8462
議	-15.8462
起	-15.8462
軍	-15.8462
道	-15.8462
陵	-15.8462
陽	-15.8462
館	-15.8462
體	-15.8462
그	-15.8462
대	-15.8462
독	-15.8462
로	-15.8462
리	-15.8462
수	-15.8462
스	-15.8462
회	-15.8462
汉	-15.8463
Ł	-15.8463
Є	-15.8463
Հ	-15.8463
տ	-15.8463
ס	-15.8463
ピ	-15.8463
ュ	-15.8463
標	-15.8463
準	-15.8463
[	-15.8463
ง	-15.8463
ย	-15.8463
ศ	-15.8463
ี	-15.8463
เ	-15.8463
โ	-15.8463
